fffffffffa27
000000000119
fffffffff9a2
ffffffffff91
0000000003d6
ffffffffffe8
fffffffff779
000000000a21
ffffffffff7e
fffffffff98a
000000002821
00000000030f
000000000824
000000000094
000000000641
fffffffff6ec
000000000413
fffffffff73d
fffffffffe3a
000000000d94
000000000be3
fffffffffa72
000000000792
fffffffffc31
000000000a42
fffffffffed5
fffffffffbbf
fffffffffe4e
000000000733
00000000003f
0000000002e2
ffffffffff24
0000000001e4
000000000067
fffffffffc9b
ffffffffffcc
ffffffffff5e
0000000006a4
000000002b58
fffffffffe05
ffffffffff37
fffffffffe70
fffffffffec2
fffffffffe94
ffffffffff27
000000001ead
000000000188
000000001031
fffffffffd49
fffffffffe7b
ffffffffff4c
fffffffffb42
000000000141
000000000002
0000000004ec
0000000003bf
fffffffffea9
0000000002de
000000000238
0000000031e2
0000000000f1
000000000ee2
fffffffffef9
00000000035b
fffffffffa26
ffffffffffbf
fffffffffd91
00000000065d
0000000002f0
000000000091
fffffffff751
00000000033a
fffffffffdf5
000000000053
000000000088
fffffffffb4b
fffffffffbee
000000000333
000000000b19
ffffffffff12
000000000366
fffffffffee4
fffffffffdf1
00000000085d
00000000033f
fffffffffb8d
ffffffffff2d
00000000002c
000000000144
000000000580
00000000017e
000000000aff
0000000000bd
000000000467
00000000025c
ffffffffff69
00000000148d
fffffffffd72
fffffffff979
00000000007d
000000000154
fffffffffd0b
0000000003e5
0000000006a9
ffffffffffb1
00000000124b
0000000002f2
fffffffffedf
0000000004e8
00000000130d
0000000003be
0000000007f8
00000000018d
0000000003b3
00000000022b
fffffffff98c
fffffffffe3e
fffffffffbde
fffffffffe95
fffffffff36f
ffffffffff5c
000000000522
00000000023b
00000000042a
0000000002f8
0000000001ce
fffffffffc1a
fffffffff7ba
fffffffffd72
ffffffffff41
fffffffffd70
fffffffffefc
000000000115
ffffffffffb2
000000000239
000000000010
0000000017dc
0000000006c4
fffffffffa8c
ffffffffff4e
fffffffffdb5
000000000308
000000000159
00000000097c
fffffffff940
ffffffffff70
fffffffffecc
fffffffffaa3
ffffffffffac
000000000009
fffffffffb98
000000000124
fffffffff8ae
fffffffff75a
fffffffffaeb
00000000003c
00000000182e
fffffffffee3
000000000a02
00000000013d
fffffffffef6
000000000486
000000000326
0000000001ed
fffffffffe2f
fffffffff634
000000000a5b
000000000021
000000000399
000000000862
0000000002e6
fffffffff6b9
00000000324a
fffffffffb63
000000000121
fffffffff6bc
fffffffffcc4
fffffffffa2a
00000000069b
000000003a1b
000000001113
000000000e3b
00000000029c
fffffffffc3a
fffffffff967
0000000001cf
00000000065d
fffffffffea3
fffffffff5a2
fffffffffc0d
00000000003a
0000000007ad
fffffffffeb0
000000000943
fffffffffb1f
000000000034
00000000050c
fffffffffc73
fffffffff9a7
fffffffffef4
00000000046a
0000000001f8
fffffffff6bf
fffffffffef7
0000000005ff
00000000011a
fffffffffebe
fffffffffcff
ffffffffff7f
000000000c05
0000000005e9
000000000e11
000000000245
0000000034a9
fffffffffd8d
fffffffffd1e
fffffffffccd
000000001a99
0000000004ce
ffffffffffd5
000000000907
0000000000de
fffffffffb5b
000000000946
000000000c90
fffffffffe0a
fffffffff2d8
fffffffff84f
fffffffffef9
00000000001b
000000000247
fffffffffc5f
000000000074
00000000014f
fffffffffd43
00000000049c
00000000014c
0000000001f5
000000000faa
fffffffff7dc
fffffffffe79
000000000462
00000000361a
fffffffff847
fffffffffea6
0000000012e5
0000000012f3
00000000086f
fffffffffadd
fffffffff990
fffffffffbe1
000000002d64
00000000038c
fffffffffe0a
ffffffffff89
fffffffffef2
fffffffffdc9
0000000004cf
0000000000ae
000000002115
fffffffffa89
fffffffffde7
fffffffffd19
ffffffffff04
000000000285
000000000463
fffffffffda4
0000000003e2
00000000062f
000000001004
00000000017e
00000000356a
000000000011
0000000005cd
fffffffffd7d
0000000001db
0000000004d0
000000000693
0000000008eb
0000000006a4
00000000012f
000000000b14
fffffffffd30
0000000012d2
ffffffffff88
fffffffffddc
000000000500
0000000021cf
0000000005f1
00000000047f
00000000098d
fffffffff6f4
0000000006ac
ffffffffff20
fffffffffaaf
fffffffff657
0000000001c3
000000000020
0000000000f3
fffffffffd67
fffffffffda3
fffffffffd63
000000000300
000000001e43
0000000003d3
fffffffffb93
000000000428
0000000000ad
000000000674
fffffffffe7d
fffffffffe31
ffffffffff86
000000000107
0000000006c4
fffffffffba0
000000000059
fffffffff590
fffffffffc5a
00000000172a
000000002415
0000000001a3
000000001442
000000000053
000000000498
0000000026c7
fffffffffec0
000000000014
00000000009e
fffffffffc6e
ffffffffffe5
fffffffff9ee
fffffffffb2c
0000000001bd
00000000043d
000000000a6b
000000000c6f
000000000727
0000000009b4
0000000006e1
00000000076e
00000000019d
fffffffffe74
fffffffffe8e
000000001586
ffffffffff2e
000000000071
0000000006b5
0000000000c4
fffffffffbba
ffffffffff76
fffffffff6cd
000000000258
000000000263
fffffffffea5
000000001632
0000000006a3
fffffffffe18
fffffffffeb8
0000000008b2
fffffffffbd9
0000000000a1
00000000082d
fffffffffce2
000000000a49
000000000545
00000000062a
00000000042b
0000000004bb
fffffffffdf4
fffffffff896
ffffffffff79
00000000076c
fffffffffeb2
ffffffffffc4
000000000445
fffffffffe4f
fffffffffd21
ffffffffff9c
000000000178
000000001d35
000000000218
0000000001c1
000000000030
ffffffffff80
ffffffffff9b
000000000189
00000000195d
000000000274
fffffffffe91
000000000083
000000001969
000000000654
0000000000aa
fffffffffe3f
000000000948
00000000064f
000000000309
000000000154
0000000003fe
000000000038
fffffffffa4d
fffffffff6db
000000000273
fffffffffcd3
fffffffffb52
00000000014a
fffffffffc81
00000000032d
00000000060c
000000000023
fffffffff868
00000000040c
fffffffffd20
fffffffffe60
000000002a9a
000000000c44
fffffffffc06
fffffffffbaa
fffffffffe5c
000000000098
0000000006a9
000000000712
0000000016d8
0000000038fb
fffffffffdf1
0000000001f7
0000000001eb
00000000164b
0000000003d4
000000000308
000000000047
fffffffffa2b
000000000ab4
fffffffffccc
ffffffffff5b
ffffffffff81
000000001a65
000000000185
000000000041
fffffffffde4
000000000370
000000000937
fffffffffef9
fffffffffd10
000000000790
fffffffffdd9
000000000116
fffffffffb35
000000000560
000000000a40
00000000049c
000000000081
00000000056a
fffffffffe99
000000000795
fffffffffd7a
fffffffffe7d
0000000033f4
000000000f6c
00000000027b
fffffffffceb
fffffffffccb
000000000614
0000000001ff
fffffffffbec
0000000012b6
fffffffffef6
00000000037f
fffffffff9ce
000000000126
fffffffffece
fffffffffe87
fffffffffbaf
fffffffffd24
00000000058f
fffffffffc53
0000000001f7
00000000084d
0000000005e0
fffffffffdf8
000000000458
00000000056b
00000000029f
000000000294
000000000537
00000000031f
fffffffffcd5
ffffffffff50
000000000c71
0000000000d4
0000000005f6
ffffffffffbf
000000000329
fffffffffd2b
00000000097b
00000000038e
000000000167
fffffffff3f3
fffffffffd63
000000002535
fffffffff716
fffffffffb67
00000000014a
fffffffffbfa
000000000119
fffffffffe35
ffffffffffec
000000000303
000000000a90
00000000073f
ffffffffff9f
00000000039a
fffffffffee5
fffffffffbb2
ffffffffff97
fffffffffe03
fffffffffc07
000000000190
fffffffffe3e
fffffffffe07
000000000343
0000000003dd
fffffffffdc1
fffffffffe2d
ffffffffff12
fffffffff97f
ffffffffffce
fffffffffee2
ffffffffffb7
0000000003cb
fffffffffee4
000000000bac
0000000018fc
fffffffffcab
0000000002d2
000000001134
fffffffff6ce
fffffffff96b
fffffffffadd
0000000007b8
fffffffffda6
ffffffffffc0
000000000048
000000001e75
fffffffffdb2
0000000001d5
fffffffffdc6
00000000052d
fffffffffc69
0000000007c3
000000000888
fffffffff596
000000000253
00000000068c
ffffffffff73
000000002224
000000000784
fffffffff132
0000000000e7
fffffffffbb4
000000000317
fffffffffdce
fffffffff71b
0000000001c6
ffffffffff7e
ffffffffff02
000000000919
fffffffffdad
0000000003cb
fffffffffdeb
ffffffffff8d
fffffffffb6e
000000000f07
00000000068f
fffffffffb49
0000000008aa
fffffffffcc1
000000000148
000000000061
000000002598
00000000006d
0000000003c6
fffffffffd3c
fffffffffc7d
fffffffff73f
0000000004bc
000000000926
0000000001d4
fffffffffcc0
000000000177
fffffffffd0a
000000000143
000000000af2
00000000006f
ffffffffff07
fffffffffec8
0000000003be
0000000001be
000000000098
fffffffff8fc
000000000932
000000001cf5
000000000a8f
0000000003f2
fffffffffbd1
fffffffff889
000000000886
ffffffffffc4
000000002691
00000000050c
fffffffffde1
000000000bd0
ffffffffff85
000000001789
0000000005fa
fffffffffe04
000000000649
fffffffffbe0
0000000001a1
0000000004da
fffffffffb6d
fffffffffc83
000000000a79
ffffffffff43
fffffffffebc
ffffffffff0d
fffffffffdf8
0000000001ff
fffffffffe59
0000000000da
00000000000a
00000000025f
fffffffff929
000000000143
00000000025e
fffffffffab2
0000000002c9
0000000006dd
000000000989
000000000911
ffffffffec30
0000000002b4
000000001776
0000000027ab
fffffffffd7b
0000000007d7
fffffffff892
000000000101
fffffffffddf
ffffffffff47
000000000471
0000000013ae
0000000001e9
fffffffffb20
fffffffffcbd
fffffffffe61
00000000030f
0000000012ac
fffffffffefd
ffffffffff7b
fffffffffe1d
ffffffffff16
000000000248
000000000184
fffffffffe29
fffffffffea5
0000000002d0
fffffffffd28
000000000630
ffffffffff04
00000000105a
00000000056f
000000000386
ffffffffff30
ffffffffff8c
fffffffffef3
fffffffffd68
00000000095f
000000000141
0000000000c1
000000000457
0000000000dd
fffffffffc11
ffffffffff6b
0000000006a2
fffffffffea4
fffffffff99b
000000002206
00000000002c
0000000035fd
000000000124
0000000000d6
fffffffffbff
0000000012fa
000000000375
ffffffffffbd
0000000002f2
000000001359
00000000017b
fffffffffc59
fffffffffc4e
00000000007a
ffffffffff79
0000000010fe
0000000002dc
000000000983
fffffffffd69
fffffffffbd0
000000000141
000000001198
00000000001b
00000000199f
000000000098
000000001aca
000000000c31
000000000989
0000000001dd
000000000002
fffffffffa5c
ffffffffff1f
000000000baf
0000000006cf
000000002d7c
000000000678
00000000026d
00000000085b
fffffffffe42
fffffffff958
fffffffffcdd
000000000619
000000000ced
000000001195
fffffffff9dd
ffffffffffff
fffffffffe0f
fffffffffd2a
000000000184
fffffffff740
fffffffffadb
0000000009b1
0000000001d6
000000000137
fffffffff639
000000000cf2
0000000032a9
fffffffffe30
fffffffffa28
00000000015a
0000000014dc
fffffffffe5f
fffffffffd10
ffffffffffc4
000000000116
fffffffffc7d
fffffffffcf2
000000002b43
ffffffffffe8
000000000142
000000000103
00000000002d
0000000003df
000000000097
fffffffff9f3
fffffffffec9
000000000029
0000000005f0
00000000136e
fffffffff694
fffffffffdc8
fffffffffca4
000000001153
fffffffffeaf
0000000000ca
000000000781
00000000046c
0000000005b7
00000000055e
000000001d55
fffffffff5d5
fffffffffbc1
fffffffffd6b
000000000fde
fffffffffced
fffffffff671
000000000141
00000000003a
0000000007c7
000000000139
ffffffffffc2
000000000e45
000000000863
000000000814
000000000ff2
000000000357
000000000930
000000003197
0000000002df
0000000003bb
fffffffffa4d
fffffffffe8f
000000000a42
0000000002f3
0000000000a3
000000000447
ffffffffff2b
fffffffffb1f
00000000025d
0000000007d9
0000000000d4
000000000157
000000000252
fffffffffbbb
0000000012a6
000000000eef
000000000171
fffffffffdaf
fffffffffa4d
000000000118
0000000002df
0000000003ee
fffffffffc1f
fffffffffdee
0000000000e0
000000000d9b
000000000885
000000001c70
000000002e51
000000000027
0000000000c6
fffffffff91e
fffffffffb69
00000000024c
000000000323
ffffffffffcc
0000000000d9
000000000073
fffffffffae5
fffffffff975
0000000000ce
ffffffffff54
0000000008f9
fffffffffea2
0000000002ed
000000000225
ffffffffff06
fffffffff7c1
000000000021
00000000009a
000000000082
0000000004ab
fffffffffc32
000000000194
fffffffffe4f
0000000003d5
0000000004f6
00000000338b
ffffffffff1f
fffffffffaff
fffffffffdcf
000000000253
00000000017d
000000000cdb
fffffffffbfa
0000000001fd
ffffffffff12
ffffffffffd5
fffffffffd74
fffffffffc6f
000000000726
fffffffffcd9
000000000431
00000000015b
000000000b02
ffffffffff4a
fffffffffc7b
fffffffffcd1
00000000017e
000000000575
ffffffffff33
ffffffffffff
000000000189
fffffffffed3
00000000038f
fffffffffde4
fffffffffd52
000000000cd9
0000000005a7
fffffffffe6b
fffffffffbbc
fffffffffdd1
ffffffffff77
000000000059
ffffffffffb0
fffffffffac0
fffffffffe8a
00000000187a
00000000103e
00000000068a
fffffffffe9b
0000000002b4
0000000000a9
fffffffffcda
000000000359
fffffffff003
fffffffff479
fffffffffa92
fffffffffe03
000000000179
fffffffffa33
00000000034a
fffffffffcb7
000000002f17
000000000036
fffffffff746
000000001379
000000000288
ffffffffff41
000000001413
000000002b7c
00000000049d
00000000068d
000000000a43
0000000002b6
fffffffffb4a
0000000002d4
fffffffff770
fffffffff9c1
00000000002c
fffffffffc32
fffffffffeed
fffffffffbd7
ffffffffff79
00000000046b
00000000029c
000000000287
fffffffffbe1
00000000001e
0000000009db
fffffffff9c2
0000000001f9
000000002c68
fffffffffc94
fffffffff8c4
fffffffffff2
00000000045f
fffffffffdc7
000000000087
fffffffff887
0000000000b2
000000000e42
fffffffff7de
000000000c0e
fffffffffdbb
fffffffffd4d
00000000159a
00000000059d
000000001a11
0000000004bd
fffffffffcb8
000000000293
ffffffffff99
ffffffffff4e
000000000529
00000000023e
000000000385
fffffffffbd8
fffffffffe18
fffffffffcd6
0000000002b6
000000000248
000000000264
ffffffffff3b
00000000021d
00000000031d
fffffffffec7
0000000006e0
00000000021d
00000000031c
fffffffffebe
ffffffffffe7
00000000056e
000000001f34
fffffffff91b
0000000004c4
00000000012b
000000000f2a
fffffffffdc9
000000000739
ffffffffff00
000000000ae8
ffffffffff40
ffffffffffce
0000000005a2
ffffffffffe7
000000000242
000000000d25
0000000001a0
fffffffffa86
fffffffffafc
000000000011
000000000323
000000000913
ffffffffff6f
000000001ff5
000000000085
000000000535
fffffffffeda
fffffffffd3d
00000000106a
00000000028f
0000000001cd
ffffffffff2f
0000000001c7
000000000777
000000001a1d
00000000310a
000000000b34
fffffffffe9f
ffffffffff7c
000000000295
fffffffffb57
fffffffffc59
fffffffffb3b
fffffffffc55
