f0
1b
d3
e4
3a
09
b7
c9
3a
27
31
23
e9
3f
17
28
c7
d3
07
15
2a
ed
32
0d
c7
f2
c2
d5
f1
27
19
f4
29
10
30
d8
c9
e8
45
2d
fb
12
48
34
b2
0f
2f
44
ec
ba
32
fa
14
c5
dc
3a
cc
30
cd
c4
41
18
2b
c5
e9
02
dc
21
07
c0
e8
29
b9
16
ce
36
cb
0d
f1
c8
20
2b
44
36
c7
d7
39
db
05
e2
0b
e1
24
c0
3c
16
fc
f8
13
08
46
c7
0d
be
c3
40
e4
25
32
31
37
4a
34
fa
fe
0f
e5
f2
3b
0d
11
1c
45
1b
2f
01
2c
e2
0d
f1
1e
2c
2b
27
da
3d
e7
b8
12
39
e7
fe
43
b7
e2
3c
22
0c
45
43
3d
1e
09
da
e7
46
47
2b
15
fc
d9
09
39
c4
e9
04
ec
4a
ec
d6
1f
f1
f3
1f
f3
d8
3e
d5
f2
ee
e1
bd
bf
db
09
d1
39
c8
3d
15
3e
d9
c5
da
f1
06
c2
fd
21
fc
d6
13
11
0a
d5
2a
c4
d4
c8
c7
d0
da
17
dc
17
fd
22
e2
fd
fe
1d
17
e7
d7
4a
0a
2d
ed
3b
d4
f4
1a
de
d3
f0
19
09
48
30
0f
2e
22
fa
17
c0
be
1d
36
e7
e0
f6
28
f3
f4
ca
06
e2
dd
e1
e3
fa
fe
39
c7
05
ef
de
eb
11
19
14
3c
f6
27
3b
32
33
d0
d3
17
c7
fb
b5
28
f8
41
34
18
d3
f4
cc
f3
23
f0
47
02
c8
04
fb
4b
df
e1
35
f2
d6
4b
48
dc
0f
bb
cf
c2
db
2e
20
cc
f8
2f
41
17
fd
da
bd
33
49
f3
f0
fa
c9
2c
2c
40
03
3b
ef
e1
39
c8
39
e2
40
36
c8
25
1d
04
d5
00
25
43
c1
45
de
12
28
be
1e
16
dd
1e
10
31
19
30
f8
dd
04
03
cc
dc
d6
d1
cf
fb
c6
1c
3e
e3
de
df
21
bf
be
db
32
c2
bc
49
bb
c4
fb
36
10
eb
fb
e1
08
d6
3c
3e
dd
0c
ef
e3
de
19
49
46
0d
41
15
f7
f4
f0
49
2e
14
c4
f1
28
34
44
1d
bb
3a
d8
f8
be
bb
e6
c1
17
f6
d1
33
2a
eb
d0
cc
dd
c6
c0
c9
24
e0
e6
c9
17
cf
1d
cd
f8
dd
be
c9
c3
bd
ec
48
40
fa
eb
08
f9
1c
f0
c8
c1
16
3f
e4
cc
c7
20
c6
d6
bd
fa
dd
0c
fc
de
d5
f4
03
46
14
fb
18
ed
3c
42
ff
4a
f8
07
e4
f6
37
f2
1d
dc
da
d5
25
de
cd
00
00
ed
cb
14
03
c0
14
d2
05
2d
bb
1c
f4
e5
00
0b
dd
cd
d7
f3
f9
3f
f0
08
3d
25
e6
10
d0
36
2a
d0
de
d2
27
be
ec
1f
ed
42
ce
ee
08
27
fb
c9
05
f8
07
0f
4c
2f
c7
46
27
49
da
f4
12
2c
0b
4c
29
3c
46
d7
b8
3d
0f
03
12
2e
30
eb
48
d5
ba
c3
31
df
eb
c6
cf
0f
0a
37
32
e9
f9
36
45
e0
1b
10
b9
e4
ec
d8
13
e6
12
d4
e2
ba
c2
26
0c
d5
26
30
1f
e9
e1
09
dd
15
b8
ce
d4
39
2a
de
bb
df
30
d6
3d
ee
21
d7
0f
d7
25
fd
2a
ce
d0
09
20
ff
e7
25
fe
d4
05
3a
19
1c
fe
d5
36
08
d0
f7
0f
cf
19
b7
13
03
c4
17
d8
e3
33
03
d2
21
dc
d0
d4
37
0f
3d
de
f2
48
09
02
37
bf
f7
26
f4
e8
00
34
d2
11
d8
0a
ca
18
2e
2c
c3
e1
11
01
04
ba
06
db
20
c9
d0
11
29
cb
41
f0
03
c9
09
46
be
4b
42
1c
f2
da
29
f7
ec
be
cf
ba
23
08
cd
1f
4b
bc
1c
de
1b
e0
1c
d3
39
e7
d2
1d
19
13
ea
d7
d1
f5
fe
c3
31
dc
df
01
f1
38
1d
ef
06
30
0c
18
cd
f1
46
d5
ca
24
38
2f
f1
cb
2c
1f
c6
ef
1c
40
e0
e7
d8
12
27
04
12
39
3a
3b
1e
ff
dc
c4
bf
cd
c8
1e
f3
20
14
2c
1b
e1
d3
fe
1d
18
46
46
23
1a
00
2b
f9
0a
d7
cb
d4
45
2e
03
3a
18
e0
15
21
1a
3a
e8
c2
df
1f
26
2d
03
18
ec
f1
f1
fb
d4
38
02
27
16
bc
e7
e9
3e
ca
db
48
30
46
3a
be
d4
e1
0a
e7
3b
1c
34
b5
c0
26
13
04
20
33
dc
2e
39
17
33
35
33
3c
09
42
14
44
12
40
1a
ff
2e
d2
29
27
1f
0f
04
3d
ba
0a
d1
d9
ba
4b
d7
4a
40
d9
20
d4
1e
01
2a
c1
f6
52
bf
09
fc
e6
c6
b9
00
bc
d6
fa
45
29
02
dc
fe
d7
13
0d
00
13
dc
0b
fb
e4
f4
57
c8
3c
d9
1d
0f
4c
ce
2c
da
10
e0
19
e2
59
3d
d6
21
ec
db
3f
f0
fa
09
44
12
f0
e4
d8
fd
c7
2f
0f
0f
c6
ef
e3
ea
bb
26
cc
da
00
bc
f7
02
f2
1c
41
29
fd
e9
48
00
b7
38
b4
1a
00
38
3a
09
3b
38
1f
1f
40
f4
42
ef
dd
f8
13
21
1f
36
11
ee
ce
1d
34
ce
3b
dc
40
0e
f9
be
2f
f4
0e
f9
42
cf
e4
2f
07
13
d1
20
cf
2c
01
e9
e2
e4
d7
c7
cf
f1
ca
20
c4
ec
19
df
f8
15
d0
3f
c5
03
41
3b
e1
d6
2a
ce
0b
0a
dd
15
f9
15
e0
fd
db
05
2c
42
27
ee
28
09
dd
38
08
e1
c3
da
3f
ff
47
03
3c
33
d9
f6
30
ef
20
3b
24
18
bb
da
e2
08
da
34
3a
18
bc
01
43
21
b6
29
25
c7
c6
c0
d1
d1
03
ef
32
1d
be
26
f4
be
d7
c8
e9
19
e2
c5
f7
33
12
1e
04
fa
f6
e2
cc
fb
19
3f
f6
de
16
e2
de
25
31
41
0e
ed
f5
de
f3
e5
06
2e
f7
30
13
d0
32
ec
08
2e
15
1c
d8
33
25
10
32
ed
43
06
e7
cf
e9
e4
27
34
05
ea
ed
2a
c9
ba
e0
fb
05
07
29
e1
28
1a
e9
f7
28
d3
b8
0c
0f
b8
07
33
c8
be
35
31
f3
09
d7
02
3e
cd
0b
b5
17
07
c3
21
d8
fc
1e
2e
f3
10
bb
bb
da
0f
3b
be
0b
49
00
fb
08
44
31
fe
01
da
30
45
ee
e1
fe
bf
d1
06
c1
36
b9
ec
2f
ed
cf
0c
c4
2a
33
14
1b
d5
36
0d
d6
ef
cb
df
d5
27
c0
35
b2
be
db
16
db
19
ce
00
2b
0e
0d
0b
e4
04
b4
02
ff
fd
33
17
c0
ea
1c
50
de
cd
dd
d9
de
e3
ca
2c
5b
da
e8
4c
b7
b3
3f
ff
1f
0b
17
fd
ca
0c
ef
24
e2
c5
3f
ff
3f
4a
25
5b
04
0a
ef
b9
fb
34
0b
2f
fa
cb
e8
2c
f2
fe
48
13
07
3a
1a
b8
42
16
19
05
33
d6
12
f4
fe
59
1e
d1
d1
e3
fb
f7
30
38
44
15
c2
c9
d3
07
c8
eb
03
32
29
0b
f7
e0
f3
fa
f9
2e
16
f2
01
2c
0a
21
f9
3c
10
3d
41
22
c4
15
46
df
ec
d1
04
14
e3
ba
d2
4c
c1
2b
c9
31
25
45
e9
f9
c6
21
1b
43
10
05
16
33
3e
1f
ea
48
fb
ff
1f
19
15
d6
02
e4
19
e4
13
f7
2e
44
26
e7
e6
39
43
d7
37
e3
ea
39
24
05
da
c4
f0
36
1e
2e
ed
bc
ce
c6
49
e3
da
25
f7
1c
df
31
09
e8
d2
de
35
da
19
d5
f1
10
d9
cc
10
bc
f3
01
18
48
46
dd
d0
e8
2c
e3
db
38
c6
39
04
db
32
30
13
ea
1e
13
d9
30
0a
f3
d1
1e
15
01
fe
c7
15
2e
bc
23
46
13
00
14
f9
28
e8
42
e4
d4
13
db
e2
b8
f9
41
b6
e1
dc
36
da
0b
30
d0
cc
d9
d4
11
e0
e6
22
13
42
c2
b8
07
ea
32
18
c1
dc
ff
27
be
d0
02
f4
34
45
13
29
bb
1f
47
e8
e3
ba
ea
bf
0e
e0
dd
d0
c8
e3
36
be
3d
21
0d
1c
d8
e1
07
17
35
c2
23
21
34
fb
e0
da
26
33
fa
ea
c3
09
ba
0f
00
0f
1d
e2
2c
dc
0c
1a
2f
49
44
0f
0a
bb
48
05
1f
1e
15
28
f2
da
2a
32
f6
0c
db
10
15
be
32
13
1f
25
c4
f1
c4
3d
db
f2
32
f3
d4
c0
de
f8
30
08
25
0c
33
3b
3b
1f
d2
dd
2f
be
dc
1c
ec
3c
17
0b
28
08
cf
30
be
d7
32
2a
2e
33
0e
e5
bd
0c
29
05
c3
2f
10
d1
30
20
1b
0f
16
bc
de
3c
be
f9
07
ce
c6
c7
be
0f
cc
c9
2c
cf
33
f6
45
bc
0c
bf
2c
05
c8
e0
bd
39
0f
f5
e6
0b
2a
e6
23
c1
0b
d8
f1
22
1c
d9
d2
30
cd
29
eb
08
ce
f4
48
c6
d4
06
09
2c
11
35
c4
c8
3b
cc
1a
e4
0a
07
48
35
0a
fe
44
d2
4d
12
3c
23
3f
b8
bf
46
fc
bc
31
0b
d5
df
f5
cb
f5
1f
22
09
09
d1
d8
11
42
f3
d9
05
fd
06
3c
47
17
37
ff
00
36
f4
2e
00
39
e1
fe
bd
1d
f7
38
04
33
dc
cd
45
4e
ef
24
40
0d
1a
0f
1c
23
f0
f3
36
d4
0e
37
03
e6
2e
ba
ea
b8
0a
c9
06
b9
40
db
36
b5
ca
e4
15
f7
19
d1
16
02
0f
ba
35
36
33
d9
2d
bc
f3
18
f8
06
14
c3
fd
18
ff
3a
23
3b
de
be
e3
24
39
f2
e3
ce
2e
ce
c5
00
20
d0
e3
36
d5
2c
ed
c6
00
e7
18
06
31
ba
3b
0b
22
24
26
d8
2a
0f
0a
c8
eb
2a
be
ea
ec
f0
0a
0d
c9
d4
12
eb
cf
0a
df
e0
e1
00
d2
2d
14
22
bb
23
fe
fe
1a
01
00
06
3d
48
30
23
f1
00
d5
bc
0c
10
0e
c0
db
16
35
c7
c6
b5
24
2d
3c
18
cf
19
48
10
bd
02
fc
06
c4
04
09
19
ba
e7
3a
f1
ff
d4
e3
f8
f7
d1
33
f0
fd
ce
db
ce
f1
25
43
22
40
0d
0d
e9
fb
30
1f
e6
d2
01
41
d6
dd
22
0c
f5
24
c9
cf
37
30
da
0e
24
20
fc
2e
c4
e3
10
da
39
d3
ca
35
f0
d2
fb
d3
14
c0
dd
19
41
3d
d2
d0
bc
d3
10
0a
06
d5
ee
3f
0d
0e
48
bd
be
1f
b7
d3
d4
b7
bd
1c
c8
22
0c
30
11
cb
eb
14
1e
3c
ea
0a
16
f1
37
ee
3c
cb
ee
dd
ec
2e
00
db
ef
bc
d3
0e
2b
3a
20
e7
00
e1
da
01
43
e6
e9
02
ff
3e
1c
c6
d2
ea
ea
e9
bf
0b
0d
48
e0
20
17
c5
23
14
ea
28
2e
d1
06
e2
ce
dc
04
09
d3
c8
02
b5
14
12
ee
b4
c4
4c
36
dc
0e
0f
42
1d
3b
37
3d
18
47
ba
18
0b
3e
b7
bb
be
e8
02
b3
be
2e
ff
b7
1a
22
f7
e6
e6
2e
ca
19
0d
1a
f3
ce
e5
f6
bb
12
45
33
ca
d3
44
bf
c3
34
fb
2c
0f
ff
cd
da
13
fd
11
c3
3e
f1
d8
d5
3f
34
24
f0
29
e8
e1
3b
fd
41
ec
ff
42
33
b9
2c
4b
35
f5
db
1d
f5
e2
f8
f9
e2
0a
34
23
44
ce
e8
f3
e4
30
ff
12
40
34
b5
bf
f7
ed
db
36
f9
e6
3a
fe
d8
17
bc
23
d2
dd
c6
00
40
ff
fc
cd
f1
01
11
00
17
21
0f
3f
42
c0
13
43
46
fc
d0
30
f6
cd
eb
fc
b6
3f
d8
e4
f6
b9
d1
08
b7
d4
09
c6
0e
db
fd
12
43
ba
3c
22
ba
45
f7
c8
d8
3e
d2
d7
d2
14
1a
30
d3
d0
2a
c4
05
e1
ff
38
d6
41
e2
03
31
f6
dd
2e
d9
10
fc
fe
d9
db
3a
1c
46
ec
03
37
fa
cf
e5
b6
d6
e6
cb
1d
e9
d3
fe
24
3b
f6
ec
e7
f5
d0
18
fe
bc
d9
15
17
cb
12
1b
c7
e6
cd
01
0f
f5
18
f2
45
d4
26
0f
ba
e0
10
46
0f
43
c7
03
f0
38
fb
d2
0f
47
39
d7
31
dd
2c
2b
cf
29
1b
d4
4a
ed
d5
44
3d
cb
28
1e
d1
40
fa
c4
34
02
26
0e
0f
31
cd
ce
3f
14
0e
f5
1c
2b
3a
23
d4
e9
06
e2
40
04
dd
e5
3a
d1
0f
ed
e9
1c
39
fa
b9
19
08
23
38
27
c7
cf
f1
e5
1e
3b
e0
11
0a
c7
05
c7
c6
2b
f9
29
2e
fe
f6
35
d0
e5
b5
ed
d1
2f
01
c7
1e
e0
e0
d1
43
14
ff
39
36
03
43
d1
df
bc
d1
4b
ea
1b
32
bd
1f
4b
03
d3
ec
d5
3b
42
e5
08
f0
ca
02
3b
d6
d4
01
e6
21
b7
bd
32
3b
42
02
23
d6
07
bc
48
17
d0
d0
0d
44
e2
d8
ed
0d
41
39
3d
e4
bb
ce
33
46
cf
c3
2d
2d
17
b9
f9
be
3d
b9
e4
cb
2f
03
bb
38
2a
d6
1c
1b
ce
22
13
19
10
17
43
22
c2
e3
19
0d
20
18
42
41
ed
d9
fb
25
00
e2
d4
b2
2c
df
25
22
de
c0
f2
3d
3c
0f
02
f0
e0
42
20
be
04
06
06
da
49
0f
47
0f
37
ed
4c
17
23
c8
fb
3f
f4
10
36
2a
47
28
07
dd
e7
ca
25
36
e9
b5
14
25
11
3a
0a
35
c0
2a
1d
fd
b4
cd
40
04
0f
27
ef
d6
51
17
14
3c
df
0b
13
1d
f3
21
1a
d5
18
31
0f
27
06
f1
1e
d5
33
d9
e5
da
e2
cf
e7
2e
0a
20
24
ca
08
32
db
16
ea
ef
0e
47
39
db
01
37
0f
40
10
45
e2
39
02
e6
da
2d
16
47
f5
1a
31
cd
31
2e
e5
db
fe
d5
e3
47
c2
19
cf
11
18
d0
2b
2c
1d
e5
be
16
43
cb
17
e4
0f
3d
b9
19
c7
bf
16
3f
be
db
28
e7
12
cd
f7
32
1b
df
bf
38
ed
07
c3
ff
49
ee
34
25
3b
ec
dc
00
e0
bd
d3
09
45
e7
41
03
4b
e7
30
26
e3
f4
dc
1e
43
f0
01
db
c2
ef
24
2f
fe
3e
22
dc
ef
3f
30
1e
43
10
e4
1b
bd
c3
1c
1b
30
03
d0
15
33
3a
1e
d6
f7
b7
10
e4
e9
3a
3a
fe
e7
c8
f5
4e
09
43
c2
f1
e3
28
ca
b5
f6
37
fd
cf
cd
10
00
43
b9
eb
12
cf
fc
d6
02
1f
07
05
18
df
d9
cc
e3
25
c1
31
48
0a
29
4e
41
c7
2f
3c
ef
c8
2f
33
bc
47
21
39
d3
de
03
1d
d4
f4
25
38
d0
db
3f
08
c3
35
f4
1c
e3
46
cf
d6
ff
b5
2f
f6
c7
24
d2
1d
1f
27
da
c0
f9
2b
dc
da
f1
28
37
2e
e0
e9
0c
f1
e8
f8
3a
38
ba
ed
e4
33
eb
17
49
c0
11
35
2c
1d
e1
36
fe
cc
cf
2b
c2
22
03
1d
08
1e
c0
fe
3a
2b
cc
b5
11
17
06
38
01
09
fe
49
eb
dc
1b
0c
44
44
14
3f
0b
de
e8
d9
14
0d
bf
34
35
d9
2c
33
06
de
30
bc
18
2b
47
d5
d4
f0
f1
cc
e8
42
f6
04
cb
d4
eb
0b
fb
25
07
3f
0c
e5
fb
2d
dd
0e
eb
1e
e5
00
38
27
f1
03
31
f6
04
b9
46
32
bf
11
fa
e6
d9
e2
17
27
e0
ba
ed
43
3a
0b
03
c9
f1
05
fb
e6
fa
c5
1b
cc
03
23
c5
1c
f7
ce
da
02
41
fb
31
b7
f0
27
2d
dc
fc
b8
30
d9
24
0e
b6
08
0d
f1
f9
3b
4c
46
46
f2
17
10
23
d8
50
22
f4
18
f8
fe
ef
1b
18
b6
2f
01
45
1a
f2
d4
f0
2c
2d
09
f8
26
fc
d1
d5
fd
df
f6
03
14
cb
20
f7
3c
b9
fe
32
da
32
ef
0d
2a
2e
31
45
d5
d6
2b
df
0f
c7
f9
14
ec
2e
3c
0c
24
14
3a
35
34
e5
c1
d6
f8
10
29
2a
46
3b
46
c5
0a
25
2b
fe
ca
04
1f
f5
c7
f3
cc
b5
3e
f7
c3
f2
2e
1c
e9
3a
1a
cf
eb
12
26
49
10
0c
44
f4
d3
e9
17
08
db
f1
3f
b8
bd
cd
2b
45
49
3f
cb
2d
fc
f0
c2
df
33
ef
12
d6
1f
0d
e9
e7
bb
b7
3a
1f
3d
34
09
c6
05
c9
be
02
fc
02
fa
ce
1b
1a
be
ee
d3
2c
ce
13
46
f6
e6
36
35
15
cb
ed
f9
f1
2e
f1
0b
1f
1c
fd
b9
f0
df
2d
21
ed
db
35
06
0a
1b
37
1d
f1
c2
2e
1c
15
14
fb
3c
3b
f0
c0
23
ed
3d
ec
34
26
45
e7
bf
20
fa
31
d7
48
4e
df
05
01
2e
c7
33
ee
35
09
e1
2b
f7
04
c6
cc
c3
12
fe
19
47
27
40
22
2c
c7
e8
b6
03
d7
3d
1b
23
40
c9
e6
40
1f
2d
19
da
d9
f7
3e
0b
ea
d1
00
14
dc
f8
02
c8
3d
3c
f7
ea
0f
39
3f
d2
3a
bf
0d
03
cf
3e
ef
48
d7
16
d0
10
fd
17
15
e9
1b
27
35
be
3d
fe
25
13
e9
d5
1b
33
44
2d
ec
e5
c9
ca
2a
3b
06
19
1b
1b
d4
bf
3e
1a
38
28
0a
c7
ca
3a
11
e7
29
ec
f5
48
10
49
ec
c6
04
37
e6
0d
e3
15
d8
31
43
2d
c9
0b
db
03
3c
bf
fd
29
f6
c9
37
15
d5
2d
20
14
ca
17
1b
17
cc
ff
21
45
c7
d9
cf
f9
10
0f
d0
c0
35
dd
c3
d7
f9
10
c4
d1
bd
ee
42
f0
12
11
27
f3
d8
e1
d4
cb
b7
3d
e2
0a
12
25
42
c4
07
d8
38
d3
37
1b
0f
34
bc
04
46
40
22
4a
1f
e3
07
0f
da
10
17
d3
f0
1e
e7
d2
09
3a
2b
0a
d9
34
49
46
0a
1e
c9
d9
03
12
04
08
d6
f1
22
c0
c4
00
1b
f0
c4
c2
2c
03
22
34
16
cf
15
15
f7
2a
27
35
08
ea
12
b5
f5
d7
24
d1
e3
bf
03
2f
3e
36
46
ec
c6
20
e8
c8
c9
47
20
02
ff
c7
df
d6
4c
3a
c3
2d
3f
22
d6
b7
e5
38
20
08
cd
0a
30
03
fc
cc
1c
26
e8
33
0a
e8
fe
f5
31
3b
3c
39
2c
48
3e
c9
31
cc
c2
eb
eb
23
0a
dc
0f
f2
16
ba
b7
1e
d6
42
b5
2a
38
25
0d
3a
fb
f7
fa
d5
b9
46
2b
c8
37
24
fd
bf
15
2d
e3
07
dc
c6
20
f1
d8
ed
3d
c9
c9
2b
33
17
3f
d2
d6
3e
36
f0
e6
38
0f
3c
09
10
16
c8
3f
19
ed
be
c0
11
37
22
00
42
33
c4
fe
05
d0
0f
29
b9
de
d1
d7
bc
31
32
c1
d6
dd
23
1e
cd
08
10
e4
0f
b7
c3
bd
bf
fe
ec
c3
1a
ce
ee
2c
f3
37
36
25
d2
20
d3
d1
e9
ef
e1
02
dd
f6
0e
05
2e
e1
fe
07
42
e2
05
cf
bc
0c
26
1d
04
ea
d2
1e
e3
44
22
2d
e8
29
46
2a
22
2e
0f
15
f0
e2
47
13
35
1e
43
15
34
04
39
ea
29
0b
35
d8
12
02
17
12
2f
e8
fc
da
ef
c3
cc
bb
2f
f5
ba
2c
3f
06
ca
07
ea
1a
0c
1f
d2
0a
07
f7
42
ce
20
3f
0b
d0
d6
22
e2
26
40
ff
19
d1
c7
0d
ff
27
c3
b9
11
cc
cf
1c
ea
df
36
d8
00
e5
e2
34
d4
f5
c1
ff
06
f2
1a
be
ce
db
26
bf
0b
c4
05
21
f2
ce
0b
25
df
42
d0
d0
11
46
09
e0
22
d4
30
32
22
f1
c6
d7
39
e7
2e
05
dd
cb
22
f2
16
23
09
3b
cf
e0
34
b7
d5
46
d0
24
ce
de
d9
fc
b7
dc
1c
1a
28
f2
ff
e5
08
48
38
da
3d
21
22
46
29
ed
08
e0
00
24
01
44
18
22
b8
e9
27
00
ca
41
ce
08
0a
c5
d9
f0
42
25
37
3a
cf
34
07
fa
04
35
dd
1d
d3
46
03
ff
44
22
c2
0e
49
33
39
d4
f3
03
48
f4
d6
e7
be
1c
e2
29
de
34
f4
29
08
23
e2
3b
fa
d1
37
00
c8
45
f0
30
04
3d
cc
b7
ff
d7
1e
19
b7
d9
35
d0
47
31
f5
29
c5
f4
fb
d6
1f
39
c9
3d
e3
33
0a
3b
eb
da
c0
45
c0
45
0f
16
bb
1d
bd
46
fe
18
06
2f
ec
25
17
f7
35
2f
f7
e8
05
1c
f3
25
0a
ce
eb
39
ef
b8
ee
d1
24
dd
df
34
28
fa
1e
2c
05
27
05
fa
3a
c1
43
d9
f9
3e
0e
0c
23
3c
03
46
c3
e1
01
11
44
14
cf
f2
c0
13
d2
f8
ee
3f
1f
e5
40
26
d4
05
06
01
fd
b9
39
3b
dc
e9
3e
29
36
05
37
eb
29
da
c9
34
26
f4
ce
4a
09
1d
16
49
18
f6
12
38
c5
f7
e6
c7
0f
24
ff
e2
fe
cf
1f
3b
da
16
3c
49
bc
46
bd
3f
ca
0d
d4
dc
0d
48
b7
d6
f3
f0
d6
cc
ce
ec
39
30
de
eb
da
2b
fb
23
04
f4
de
f2
c9
1e
05
d7
1d
ca
d4
19
3e
cb
1a
cb
d5
d8
2f
f8
2f
c1
e7
14
d4
d1
08
cd
e7
d6
24
f7
0f
c8
30
f9
05
0f
0d
2d
3e
14
11
de
c5
d7
de
d0
fa
43
ff
4a
2a
12
1d
d7
f8
ea
ce
27
3b
1a
ea
4a
bf
c5
0a
ca
f7
16
f6
ed
17
c5
31
39
39
d9
e3
1a
0f
3b
ca
d5
2b
f2
38
46
bb
d3
fd
20
fa
fb
01
e3
d2
f9
e0
3e
fb
ff
09
d5
c1
2c
c7
b6
0d
42
2e
28
1d
c0
13
25
2d
ce
23
20
ba
0b
c5
41
47
0f
e6
0e
23
d8
dd
2b
06
01
ef
c9
34
09
e2
08
eb
1a
33
c4
19
e0
3d
2e
f4
19
38
48
c9
42
ba
fc
44
f1
e0
13
01
d0
3b
d6
e5
49
38
c4
28
e6
e0
23
01
02
d8
f7
d0
3a
bd
0c
3a
16
e0
f0
f2
db
3f
e1
37
b4
13
fb
c6
3d
c4
fa
d5
e1
0c
fd
14
f7
33
33
1a
be
1f
2d
c0
03
e0
ea
2f
d9
ce
3a
1d
04
fc
2c
d3
1a
ef
bf
21
c1
d8
d8
48
19
f1
1e
1b
e6
e9
05
18
15
df
e8
27
49
19
b9
eb
f2
ba
22
f2
1e
be
c8
29
f2
1f
25
05
ed
09
f8
d9
c0
3b
d7
d9
3b
d4
ed
00
0d
0a
43
3a
db
bd
ba
05
02
09
cb
24
08
ff
1e
f8
15
0d
0f
41
3e
d6
cd
28
2a
33
1e
06
b6
25
1c
40
c2
d3
c0
45
e4
43
c5
ff
0c
db
fe
ec
29
37
b8
40
27
46
07
1c
2c
0e
fd
f5
28
d8
d7
ba
00
bb
16
0c
30
fc
1f
2f
25
cf
f6
12
1b
17
ee
2e
27
31
43
26
1c
16
e4
e5
f6
e8
f4
e0
1d
04
23
f0
40
ce
d8
3c
03
28
ec
13
36
23
1a
1d
47
ec
04
cc
e9
f8
0d
fb
0f
c8
27
27
e8
f8
27
fc
48
d1
0c
10
db
f6
ea
26
0f
f6
f5
47
f4
11
0d
ec
fd
c5
dd
d5
bf
2c
fd
e3
1c
f2
cc
09
bb
09
13
13
b6
17
cd
ba
d5
c8
f1
30
c9
25
15
fe
12
2f
0c
00
05
d8
ed
d7
ff
cd
25
1b
46
d3
37
13
03
bc
1d
33
0e
24
ea
13
eb
d4
3c
d9
4b
12
21
be
35
1e
00
f5
fe
21
0f
d5
16
0f
db
20
f1
3d
10
3e
fd
27
ca
f0
fc
0e
0e
12
32
2a
f3
49
01
46
c0
0f
e7
c3
13
c9
bf
c9
fd
43
27
ef
d5
c6
27
ea
fe
ee
47
dc
c9
cc
17
1d
20
e4
31
2b
ee
24
02
dd
bb
f0
2f
1c
dd
30
b9
1d
e5
dc
c8
32
36
2f
2b
f1
03
c4
bc
19
39
f5
e6
be
e7
21
fb
ef
14
b9
31
dd
1c
e3
3c
28
db
c9
08
ca
f3
ec
f3
28
23
2c
e9
e3
d8
c9
ef
f5
ed
21
3e
32
d2
c0
16
38
18
41
35
f0
25
28
3e
02
de
e0
e6
10
0c
11
25
39
d6
2d
e9
ee
d1
41
df
eb
47
0a
19
b8
bb
d2
08
15
ba
bd
19
3d
c6
f1
32
ba
c9
c9
f4
19
00
33
b7
d9
b8
33
d0
f8
1a
cc
21
e1
c2
c0
d1
f8
23
46
c1
37
0a
d1
2d
c2
ba
ea
f5
c0
e4
cd
11
b8
f1
34
13
12
5a
1f
f6
ad
e7
e4
1e
33
d7
bd
35
20
d4
d0
ed
2b
17
04
01
25
c4
f1
b6
40
c4
06
31
b8
c7
35
40
61
e5
cb
ed
f9
cb
34
4d
28
c0
20
0c
e6
c2
29
35
ea
e5
d4
0a
b7
e2
2a
26
33
d0
d6
0f
e8
ca
ff
e0
22
d7
47
2c
ae
40
30
0b
e8
03
3a
cb
c2
c6
34
b7
01
34
37
46
51
47
fc
3f
dc
ec
08
fb
12
c0
01
ae
29
0f
de
e0
53
b8
eb
1c
41
f6
02
42
ca
37
4e
b9
d0
ea
39
c7
08
ee
53
0a
14
f0
df
1f
44
c2
fc
f1
16
25
19
bf
f3
e9
db
dd
e3
07
15
dc
d7
c1
f0
cc
f7
0c
db
d2
f2
3e
be
e9
3b
1a
49
ea
0f
2e
ea
ef
da
c3
d3
29
ce
fb
3e
f9
c4
df
e3
bc
fb
e3
07
40
fd
cc
c3
47
48
1a
2e
0d
01
29
eb
1f
1e
f1
2b
20
34
3b
45
14
f7
24
35
03
f0
0d
c2
f5
0f
f6
fa
e6
42
19
df
e2
1c
0f
3a
d2
d2
02
41
ce
be
bb
e0
4a
e3
c9
d0
e2
c8
04
06
fc
c1
30
3f
f6
24
f4
be
37
d6
12
2e
f2
ed
3f
f0
b5
31
17
39
ee
fb
dd
de
eb
e1
cc
44
47
d6
21
00
fa
2b
bd
26
28
e2
22
01
cd
f9
ca
07
05
48
2e
cd
00
01
47
ba
01
05
db
42
06
42
14
43
37
24
f8
20
31
15
d6
06
d6
3a
c3
c6
40
07
37
c8
da
33
22
46
db
07
ca
cd
03
17
ca
d9
c5
21
fd
20
bd
e5
03
c1
28
d5
d6
33
45
c5
f5
c3
d9
2e
bc
d5
e6
fe
42
12
05
0f
d6
3d
f2
e0
f9
48
e0
e4
e6
40
35
43
0e
3c
1a
cc
e8
23
c1
37
45
21
ea
f2
b5
cd
19
42
36
cc
12
ba
47
cb
31
e4
1e
01
cf
e2
f1
d9
3f
49
26
19
34
c4
2d
2f
17
3c
22
46
fa
f6
40
28
f1
04
e3
44
33
f5
cd
0a
c9
f5
c1
e8
07
18
d2
07
d4
ec
f6
f0
e6
fc
3c
4b
06
c9
43
0c
41
08
cc
46
cd
c0
f1
13
0a
d8
22
e0
cf
05
bc
e9
10
47
3a
17
b7
06
e1
bb
ee
e5
3e
ce
f8
c6
d7
bb
d7
28
2b
bd
17
19
42
ec
36
1c
b6
d9
bd
49
02
40
d1
1e
2a
fc
1b
36
ef
b6
25
21
f5
be
dd
d6
f9
fa
db
dc
24
05
29
2f
24
07
43
2f
23
41
d0
bd
04
19
35
bc
01
f4
f4
32
18
0d
c8
fd
e2
d3
c7
0d
cc
02
e2
ce
cb
fb
18
11
0c
ed
e4
e8
0c
d4
14
ec
27
ca
13
29
3e
04
30
bb
d5
2a
2a
ee
02
04
df
c6
46
c7
fa
d2
d5
3d
31
2e
23
e4
f8
e5
16
1d
c5
0c
f5
c6
21
43
ec
2c
c6
d9
c2
ee
09
30
eb
bf
39
01
39
02
05
d9
b9
32
bf
01
2f
cd
0d
10
d8
38
c1
22
de
fc
d0
0c
e6
04
fc
f7
47
d9
3f
e0
fd
45
de
f5
26
cc
ce
ec
1b
20
43
3b
ea
2b
d8
c2
2b
1c
d3
26
1e
0a
f0
be
db
c2
fd
d3
35
bc
ed
e1
b7
0c
29
2d
fb
11
e1
ee
46
48
38
0d
e5
1d
e3
34
e7
de
b7
0a
cb
21
27
d5
c8
0b
2e
f1
35
e7
e1
03
20
c3
47
09
ff
39
da
2f
0d
cd
ee
0e
10
15
fe
2f
03
38
c1
d3
fc
ee
29
e6
1a
07
0b
ca
ee
fd
b9
03
e8
bc
df
c1
ea
bd
28
16
30
d3
d3
cc
18
35
00
18
3c
e9
03
dc
e4
04
da
d3
49
b7
c8
fd
e4
11
0f
dc
18
e5
f8
33
32
c6
df
d0
da
0c
48
40
cc
48
ee
06
c6
c6
07
b7
dc
2c
d7
f9
e2
bd
1c
22
05
2f
08
c1
c5
1b
e8
c7
f7
02
43
f5
2e
d5
d0
ca
18
2c
cc
1b
fb
46
0a
49
4a
23
10
e9
e0
37
e6
b6
0d
f1
fa
2e
13
1d
17
1d
fb
d3
0e
c7
dc
3d
25
cd
f4
fc
f1
fd
22
e6
b9
0e
c2
48
eb
d4
e7
d5
f8
d7
c4
d4
1e
c5
43
41
0d
ec
3a
fd
35
fe
2a
e5
f6
1f
fe
eb
ca
f6
ea
19
12
01
3d
48
23
cb
02
ef
08
0c
11
15
23
05
d0
ca
3e
fd
da
07
e9
14
04
dc
3a
21
d7
0b
45
ed
e3
c6
08
37
25
07
fd
bd
40
e2
1b
3e
b8
b8
5f
ea
e6
e3
c0
10
c9
1b
19
ff
41
00
ce
07
e5
30
1c
31
ec
d5
07
32
c2
2d
2e
23
08
26
dd
08
07
f8
09
d9
2c
3a
1a
ff
0b
00
2a
dc
e9
0c
5e
f1
3c
e4
19
50
1b
cb
3a
04
3f
39
dd
1d
0a
2a
d9
c5
da
12
c6
e7
e4
35
1d
c7
d3
0d
b3
d2
da
55
e1
bf
d8
c1
30
ca
5b
db
bc
1d
12
e6
e1
dd
3e
1e
18
21
e6
c4
56
0f
da
f0
2a
2a
f7
51
47
e7
f3
0e
da
c9
d0
55
d4
f6
41
ef
f5
e5
3d
c9
bc
b8
13
c8
18
e6
d3
1a
06
40
bf
2a
07
c2
10
45
d2
01
1d
bb
f2
f5
1a
b9
f9
37
06
26
fe
32
ee
e4
c2
ed
32
c7
46
e8
09
de
33
ce
f9
c9
b7
f2
d5
cd
3f
1a
bf
e4
3b
d2
1a
23
1c
f0
c4
10
40
d6
1e
1d
19
32
33
ee
f4
3b
cc
cf
bd
ff
2d
fa
ea
43
11
12
ba
f0
14
39
d5
05
06
d9
24
d2
f3
2d
1a
c8
25
c8
ea
bf
37
13
e0
1d
e3
23
3d
dd
ff
27
c8
09
e0
3c
f1
d1
f5
c9
cc
20
ba
cf
d2
19
3b
28
d3
ca
b9
3d
18
d0
39
c0
09
b9
4c
e6
cd
0a
f9
cf
f1
d6
ba
d3
1e
fe
ce
f1
08
2f
38
42
d4
40
ff
1f
dc
e7
ce
e3
e3
d2
cf
df
f3
c7
c8
27
f3
47
1a
05
47
c0
23
ee
e4
32
ef
c3
35
c0
d8
bc
36
44
c0
07
ca
e5
27
e2
10
25
0a
cf
dc
fd
3d
c5
1e
cc
d7
f6
3b
37
ef
1c
f3
21
1b
f3
d6
34
20
c4
bd
c6
21
1c
d4
27
fe
07
cc
24
28
ed
44
3c
41
3c
49
3b
f4
d3
eb
03
1d
20
ea
19
03
4e
43
d2
0b
14
17
c5
2a
d5
1d
36
22
dd
e1
e1
bb
da
eb
40
1c
f2
ec
1b
ec
e5
00
c6
f2
eb
35
2b
31
31
e7
c7
03
07
0c
20
c6
ee
ba
d2
c0
28
2a
b7
47
d3
01
bb
40
d9
10
1b
d3
0e
42
c4
00
19
14
f3
31
fe
3a
d6
ea
f0
f5
23
2e
38
14
31
f9
3a
4a
bf
2b
3d
28
ba
0e
25
33
09
35
f1
05
d5
14
d2
45
39
db
d7
28
00
fe
ed
01
14
29
14
43
e9
f5
19
48
f2
45
3b
c2
cd
24
cb
00
1e
d4
0a
ed
10
dc
40
de
bb
1e
e8
00
01
3d
f4
29
1b
d1
10
4d
cb
ea
ec
33
df
ed
00
06
2e
0f
17
b9
c4
e7
de
ec
21
33
43
f3
18
42
47
bb
d7
de
3b
fa
35
31
fd
17
de
e4
f8
ca
38
0c
4c
f3
30
be
db
34
39
ed
fa
3f
da
be
23
e5
fe
0c
e4
39
fa
e4
b6
dd
1d
b9
eb
26
0c
13
f0
45
0a
bf
25
d5
37
0b
39
0b
cd
43
21
03
f0
0d
d7
fc
15
25
35
2b
dd
bb
03
46
26
ca
bf
f4
f3
02
14
21
ee
04
f9
ec
c6
33
11
ec
46
cd
bd
28
c4
37
36
40
00
f5
29
c6
e8
ef
4a
cf
fd
05
18
3a
02
0b
41
f5
c8
e6
bb
3f
43
ea
21
c6
b6
e7
11
21
2b
38
3b
d8
2b
ba
44
fc
ce
bd
20
0f
38
e5
40
ff
27
cd
ce
bb
49
41
c2
be
35
01
ef
20
d6
db
0d
06
19
28
17
d3
cc
1c
42
41
e0
c8
c6
21
f5
ff
32
fd
d4
dc
02
c7
b6
dc
d9
ea
c1
2b
de
f5
f1
eb
29
04
b6
cb
3d
d4
05
cd
eb
fd
31
17
1f
f0
34
e0
05
eb
b9
c5
ef
eb
24
3e
b6
bc
f8
36
c1
11
d1
ee
c9
3c
e5
45
bd
e2
30
c9
fc
25
e6
c2
03
25
c3
14
05
bf
e5
e9
bd
28
17
dd
f9
06
f8
23
31
3a
08
f0
c3
22
44
07
3f
34
30
c5
40
2b
2f
b9
d2
3d
21
bb
34
e3
01
f0
1d
ca
1a
d5
d1
c6
34
c3
e7
e9
03
11
32
b8
fd
bb
f1
44
da
d6
fe
c4
0c
13
fb
34
15
b6
1d
d7
c0
26
24
21
10
22
bd
eb
f1
b9
20
c0
3d
31
cf
12
bf
3c
fd
e2
c2
f9
ba
f7
f1
f7
ff
c6
01
f9
c6
01
eb
f5
c2
c8
29
00
b8
3f
e7
42
dc
e2
d6
c5
07
2f
3e
c4
e1
f3
c0
cb
e0
05
c7
2d
d0
da
f3
bc
26
c7
c2
b6
3a
c5
09
ec
d6
da
f0
45
38
ca
d3
02
1b
0f
2b
02
31
0a
3b
02
e1
2e
f3
bd
f8
cf
37
2c
eb
1b
ef
0f
1f
fd
08
0e
4c
1a
b7
25
41
e5
ba
da
cb
22
12
be
33
26
bb
02
c5
dd
3f
40
23
2b
1d
fa
c4
e7
c4
3e
4a
1d
d1
c1
2f
10
fa
e3
df
05
2c
15
0e
33
01
b8
11
2f
c3
ee
ea
f0
4c
cb
1e
29
2b
eb
da
2d
cc
e0
22
e3
22
ef
bc
25
08
2b
43
0e
33
2e
b9
39
c8
b7
2a
36
30
2b
b9
33
3b
13
e1
1f
22
23
26
32
d9
bc
d2
e7
dc
f3
2b
ef
f3
13
d1
fa
48
db
38
10
48
ee
26
34
b6
19
1c
ba
cd
f3
09
ec
f9
18
ec
db
03
db
e9
01
dd
fd
1c
42
eb
21
c7
ec
00
28
d4
22
3e
46
bb
18
40
0c
c5
bd
20
de
03
3a
47
01
06
06
b9
44
03
f6
f6
36
c6
0e
c2
c8
29
0f
48
13
06
de
42
ff
bf
f0
e3
01
3b
36
e5
43
27
d2
fe
ca
17
1c
49
d8
c8
12
d6
ee
14
fe
f5
18
05
fa
0b
29
fd
26
30
ef
34
d5
f7
b7
da
1b
2a
d9
36
ee
0b
c4
27
17
c9
15
fb
1f
10
e5
f1
48
fc
14
de
37
c2
1c
cc
bc
fe
02
1d
07
ce
cc
1f
1c
cf
ed
db
38
cd
3d
24
2f
c9
35
c1
da
de
20
b9
f9
23
13
cd
d1
ef
f9
20
e9
2a
f0
c1
03
d0
dc
cc
b6
09
09
08
ec
db
48
16
e8
d2
30
24
fc
d2
d2
f4
28
e1
23
d9
1a
1e
fd
bc
e0
36
e9
f7
36
2a
d9
2f
c0
16
e2
da
42
2a
00
ca
be
3f
c6
d9
45
0e
23
c9
22
f3
fa
26
b5
f0
cf
0d
11
c0
0e
14
0c
fe
2a
e9
dc
f7
0c
e2
02
05
00
22
e7
07
dd
bf
19
0c
08
2b
bf
3e
c4
de
e0
0c
11
01
24
f3
09
cb
c5
c8
f7
be
0f
ee
0c
05
0d
44
11
03
12
df
43
1f
ea
ea
26
0a
3a
15
ce
3f
37
1b
f0
2b
d4
e5
f1
c2
c5
d7
e3
2e
f2
32
eb
fe
c1
c9
2a
c3
03
37
09
e6
4c
39
ec
24
dc
c4
39
03
25
bd
0c
32
f8
39
01
fb
28
2f
d2
08
1e
e0
41
e6
18
34
c8
be
d2
26
e9
14
ff
ba
14
f2
07
45
c0
21
d0
f9
f2
05
45
e9
17
c8
c6
36
c1
0d
0a
b5
34
1c
eb
c8
e2
f5
cb
e4
d9
ec
dc
20
1a
3f
26
bc
2a
33
10
36
e0
43
27
df
1b
f4
ec
0a
bc
32
44
ee
19
f8
39
32
34
1d
36
3d
20
c9
11
d7
e5
d3
b8
cc
32
15
bb
29
3d
14
44
d9
d5
2e
ca
e5
e9
42
04
f7
29
21
00
de
39
0d
f4
f1
d0
0c
ed
21
c8
0f
0f
35
e8
bb
1c
e0
f6
38
dd
e0
b8
41
ca
be
33
44
c3
ba
3a
2b
17
cd
21
e5
d3
d8
30
cf
ed
46
c2
d8
ed
e1
d6
2d
c7
0f
0d
36
cc
d5
cd
eb
07
c2
c1
3d
d9
d1
fb
be
44
e6
c4
c0
c8
2d
06
ce
d7
ee
1a
38
ee
35
bc
b8
30
42
f6
ff
35
d7
e2
f1
49
1e
c0
2c
de
e5
3e
cd
31
ce
d7
14
ee
c7
c1
4a
0e
df
ee
30
eb
1f
3d
27
0d
be
39
ed
36
f0
c4
0e
c9
fb
02
bd
06
ea
35
08
ca
b9
35
df
bf
04
3d
f1
32
ff
e5
31
e8
1a
bd
ed
23
0b
19
3a
cc
be
f9
0a
f0
cd
e6
c2
15
09
42
ed
d6
1a
f3
d5
bf
2b
37
3a
18
2d
b9
d2
bb
c7
0e
c2
19
de
ff
14
2b
0b
2c
40
2c
0c
ca
cf
c3
d0
22
0a
33
c8
cc
05
ce
48
f7
c6
d5
be
18
43
1a
25
eb
05
f0
40
e3
c1
11
14
12
09
1a
1e
1e
c9
13
3a
cd
ed
ba
1b
de
de
cb
b5
cf
46
d4
ec
03
02
3a
08
c6
40
d2
e8
1a
0f
09
45
1e
00
c0
3e
46
3c
16
fe
c0
0f
27
b7
20
db
15
1f
41
11
f0
bb
e0
0a
20
ec
c9
c0
16
10
1b
0d
46
0f
2d
e1
47
f1
1c
f0
b9
fa
2b
1f
e6
07
12
d1
c0
ee
e2
e3
35
16
28
0f
e6
fa
f9
2a
04
0e
24
3c
ed
20
08
d1
05
bb
0d
2d
34
da
45
26
dd
21
b6
44
2c
02
ef
42
45
c2
ca
da
cc
fe
26
cb
f6
16
c7
eb
3c
1b
00
ee
ec
b0
2a
ae
db
38
29
05
35
1d
f1
16
c2
d4
48
d3
2e
b4
05
ed
1b
f5
e5
b8
42
cd
1f
0c
ca
45
20
15
d4
dd
4e
bf
e5
c2
bf
43
d7
0f
df
ee
dd
1d
15
09
1d
dc
30
f8
38
dc
1d
c4
3b
cd
45
16
eb
ea
dd
12
39
62
15
c6
bc
d3
ff
33
5a
c8
09
14
eb
12
f9
d1
e4
26
c0
3e
25
0c
0f
4e
f1
3b
3d
c8
25
09
fe
e7
f7
16
51
2a
e6
fa
30
14
05
af
0a
43
45
0a
24
35
45
1d
12
02
e3
3b
e3
bb
43
17
c5
bf
d5
e4
d6
d8
f2
e5
dd
32
fb
31
29
3c
d8
c0
c2
45
1f
d7
c4
c2
f8
0f
28
d9
22
17
02
be
11
fc
3b
bd
1d
c2
bb
ea
d6
cb
05
34
f4
bb
e2
b7
d5
25
e6
2f
f6
2b
d2
05
e3
32
ba
22
c0
f2
03
29
c8
dd
ce
fd
1e
1a
ec
bc
00
bd
34
c4
c3
20
e3
e1
35
c1
cd
d3
01
44
36
e8
b8
dc
15
ef
1b
34
0c
28
ea
2c
1f
e5
19
42
ef
c2
f5
e0
19
3d
e6
08
38
10
2c
39
02
49
1e
dc
0b
4e
ed
cf
ec
c8
01
48
2a
da
c7
42
d8
33
3c
d0
36
cb
2b
45
f2
2d
d4
24
b7
0d
e6
18
07
43
1e
2c
1f
3a
37
eb
0f
c3
24
df
1f
30
eb
ee
e4
bf
38
e0
f3
b7
10
fa
e1
f0
e8
ea
f8
3e
d7
38
d8
09
fd
25
01
40
2b
0e
3f
de
f1
09
42
43
d2
26
ee
b4
1a
06
38
37
c8
04
3d
c0
be
3d
e3
f4
39
03
41
d7
b5
b4
d4
c5
35
0d
36
d7
f0
17
46
46
21
e5
14
43
28
3a
e3
e8
22
ff
0f
39
fb
df
3f
24
2a
39
fb
2a
e6
c6
dc
ee
19
47
f5
35
f9
e6
de
f1
15
f6
4a
47
ce
c6
bb
25
40
f9
dc
e3
ba
30
05
da
09
b6
bd
f2
02
e3
48
cf
b9
34
f6
20
22
c4
e2
e1
05
3b
47
f3
15
1a
28
ce
d1
d9
ec
2f
d2
f9
e8
b6
43
fc
14
01
1a
e6
f0
25
15
05
c6
45
38
ec
da
12
22
42
c2
fd
0d
fa
bb
24
4b
42
d2
13
d9
1c
cf
e2
3d
d2
2f
43
20
0b
b8
06
d4
49
fd
0d
c3
ca
14
f8
37
02
3f
48
bb
d8
dd
dc
25
b9
16
26
39
06
d4
c8
d9
ef
26
10
f6
bd
f0
1a
fa
d8
04
f4
e1
04
07
38
bc
d9
11
3a
fb
f8
04
39
e9
0d
11
c8
b8
1b
32
f9
0c
c3
de
c0
05
c0
41
bf
da
eb
13
00
e6
dd
ff
2a
2b
0b
38
22
11
29
40
bb
21
21
f5
3a
b9
e2
35
f3
d5
f9
1a
c2
bb
bb
16
d1
2f
2b
cd
22
15
25
f8
2a
0c
db
c4
05
fb
ea
e4
3d
d8
f9
29
28
f2
b8
40
3e
de
21
17
1d
fc
45
09
c8
e8
2e
be
24
b9
e6
40
d7
35
c2
46
e4
ee
46
36
31
b6
20
cb
cd
de
bd
f6
f1
ec
42
c8
26
0e
1f
be
14
c6
3d
d1
38
0c
c4
30
e9
21
1a
25
43
d4
05
0a
b8
2b
e0
d2
ca
1c
0a
1b
13
27
fb
15
ed
b9
20
13
29
13
31
2a
f2
be
f0
cc
ca
f8
10
ca
0b
3d
bf
ff
db
10
e1
c6
2a
e2
e3
45
16
e9
20
2d
07
dd
27
ef
01
2e
bf
ba
e6
ba
c9
dc
04
d8
31
0d
fc
dd
bc
25
f3
32
e7
06
ff
4b
05
d0
d6
42
ca
ea
f2
09
16
c9
49
0c
16
01
46
2f
3d
1b
06
ff
41
e6
cc
de
c4
e3
ff
ee
29
f9
c1
40
45
31
44
f4
37
12
29
25
c8
06
fc
28
39
2b
c8
23
f1
3e
e4
37
fb
f9
ca
39
2f
1d
f6
fb
48
cb
c0
22
eb
d7
e9
1d
c4
1c
07
1b
df
1d
dd
0e
1f
27
3e
32
cc
2a
2a
40
20
d1
3d
e6
f9
26
e9
cc
08
db
0a
27
e0
3f
f7
cb
d5
c8
bc
09
f9
f6
10
d4
39
c4
28
e3
39
3d
ba
48
13
eb
27
22
27
f7
18
f2
24
19
f7
fb
ef
1e
d7
f9
d1
1a
f4
e5
48
e2
e8
e5
f0
dc
1a
2c
39
e9
f0
2b
21
db
e9
b9
ce
f8
37
2a
cc
ba
46
f2
ca
29
bd
0d
1f
17
c6
26
00
2b
3e
3b
bd
3a
41
b8
c3
e7
bc
f2
3e
f5
f5
c9
c0
bc
31
ff
26
11
dc
cd
09
d7
b8
06
c2
31
2c
d3
45
3c
ff
d7
41
32
48
47
22
0a
e0
0d
17
b9
cd
dc
49
02
bf
2b
ce
0f
e9
d2
1f
d6
0f
3a
c5
26
13
c0
27
cb
ef
e2
e6
3d
dc
c2
d7
f6
cd
c5
e5
c9
d6
15
ec
da
2d
0c
f6
33
dd
43
16
40
f8
d1
2c
bc
1a
01
f9
f1
b8
bb
d5
46
be
ca
d4
d7
07
3f
0b
cc
1d
f5
19
3f
fb
1f
f0
fe
29
de
0f
19
cf
cb
c6
19
03
14
f2
bc
3f
08
05
1e
37
0f
ff
37
cd
34
06
3f
e4
18
e0
e1
25
ed
4e
5a
32
cd
fd
ba
f0
3c
f2
e6
f2
ea
21
3c
23
1d
d3
d2
25
45
06
08
f7
c3
f0
e1
ef
20
41
55
02
42
dd
ca
ce
c3
25
32
e1
29
26
e4
17
41
d8
3c
03
f4
b7
c9
2b
b8
22
2e
e5
00
de
dd
1c
e1
f2
bd
35
43
36
19
28
1b
4e
bf
d6
35
e8
12
ff
dc
cc
d2
1c
c7
fb
1a
07
dc
c7
27
07
38
08
53
47
cb
be
07
de
fd
08
da
f2
e9
e8
02
d3
ea
45
3e
00
06
18
d1
23
19
f4
d9
3e
0a
29
34
d3
ca
16
0e
b6
ec
16
13
14
dd
47
d8
c1
1a
12
2d
32
0d
ed
18
fd
35
dc
3f
05
4a
e8
0c
05
fb
3a
28
e1
ec
41
f2
c7
16
2d
34
3d
d8
de
4b
ef
27
0a
ff
1c
cb
10
41
e2
1a
dd
43
f4
00
0c
f5
eb
ef
d0
2d
d1
f4
fb
01
12
27
b8
1b
17
18
f2
ee
f7
07
00
28
16
14
b8
f8
f4
cc
c6
1b
1e
e2
35
eb
05
d7
18
e9
3b
cb
fc
17
31
4d
ba
ce
cc
00
d0
1d
21
e9
dc
f5
ef
4e
30
d6
d8
08
f8
1c
eb
29
23
c6
05
1e
3d
3b
da
c2
c0
24
18
12
ef
43
24
33
34
fc
15
11
cd
cf
ed
da
d2
24
22
c7
e3
45
47
2e
e8
da
44
dc
fa
16
f7
3b
01
bc
e9
e2
12
e5
17
45
e0
36
f4
15
f1
d3
24
36
47
d7
2c
d1
34
44
13
3e
1c
cd
41
2c
d5
f8
44
ed
34
d1
2a
df
d2
03
d2
b8
1f
d1
ed
eb
2c
cc
c5
f7
2a
36
f7
f0
04
34
de
2f
e4
cc
0e
d1
1a
2c
d4
d2
3b
e9
0d
b9
37
bf
04
f7
ef
d3
03
0a
3d
c7
18
fc
0b
fe
f8
d0
01
f2
09
1f
dd
3a
01
31
3d
d4
be
bd
f8
cb
c9
07
f5
45
d8
d4
22
db
d0
e6
fb
e3
17
3f
d8
25
e4
e6
f6
19
04
f2
22
d8
b9
26
38
f0
18
0f
fe
44
3b
3c
30
28
10
ef
01
27
ee
3e
2d
ce
bd
28
e3
03
22
bf
ee
d6
21
dc
16
29
10
d5
3c
1f
0c
3e
ce
3b
b9
23
3a
f8
dc
2c
be
d5
e8
e6
cd
15
14
c7
fa
b6
e2
d7
41
2d
db
c7
1d
d5
f3
fa
0d
30
c4
cd
c9
28
3c
fd
28
d8
2c
ef
d8
b6
ba
c4
f2
3e
ca
33
0a
19
e3
e0
d1
c7
ec
eb
d9
c8
03
f7
3f
10
3f
ff
ba
0d
33
13
34
15
f4
ed
38
20
f3
27
c6
22
1e
0d
de
07
e3
c4
38
d3
d4
49
b7
c8
bb
fb
d1
27
c2
08
c1
cc
43
44
03
e9
ff
1e
f6
d8
e9
26
b8
1f
ca
36
29
d5
f4
e2
db
e0
3d
1d
da
0e
1d
00
ba
00
fc
38
08
ce
dc
c9
40
09
b9
b9
fd
ee
41
ff
c2
1c
e0
ed
41
2e
18
c2
38
46
be
3f
eb
de
f5
42
09
04
db
dd
d6
23
07
d0
ce
41
f2
00
42
d7
31
bf
21
15
3f
c1
09
0c
31
da
25
10
45
ef
ee
f4
3c
ea
ed
bd
fa
24
e1
21
20
b9
f2
2a
ec
f5
c5
26
e8
11
cf
34
ee
1e
25
cc
3b
13
b9
cb
cd
31
33
fd
17
2c
43
df
13
47
45
d9
0f
1a
cc
13
d2
16
07
f2
f3
3c
20
fc
c4
cd
f0
1e
14
d5
e6
41
0c
28
25
fc
d9
cc
19
25
d5
bc
0a
f3
c9
bb
ba
e2
01
dd
3c
f1
c6
35
e2
0b
2a
e7
0a
1b
ea
42
40
37
b7
dd
c4
09
b9
e3
38
28
cf
34
ce
09
49
ea
c7
21
40
43
0c
08
3a
d2
0c
bd
b7
05
b7
22
e9
e8
05
26
ff
2f
14
fb
d3
eb
f4
d8
c5
dd
d6
e4
c8
0e
c7
00
13
e0
bc
38
42
32
b9
f7
42
4a
cc
40
ec
c2
c0
f7
32
2f
10
17
d6
48
2d
04
23
1f
f1
bb
e2
34
ef
e2
04
00
2a
f1
03
de
36
e6
be
29
0f
3e
bb
33
1e
03
e0
30
d5
0f
36
35
1e
12
d1
fe
f0
c6
49
ea
f3
ee
b7
c1
17
32
2b
47
e3
45
e9
c4
02
13
df
e9
bd
e8
0e
25
ca
be
39
21
24
d3
13
01
e0
fc
22
4c
05
39
f1
1e
2f
ca
c3
08
e1
4a
4a
2a
dc
12
00
fd
bb
f3
31
32
c1
26
fb
ca
c5
21
fb
b5
cb
ce
d8
c4
db
25
cd
25
c5
21
3f
f6
12
ef
c2
08
47
47
ec
ec
3b
fb
bf
17
c8
cf
cb
d3
33
d8
0c
30
f3
c8
3f
dc
48
d7
d0
11
cb
fc
3e
36
d0
c9
45
f3
00
f2
c4
1c
cb
05
16
f1
e2
f5
bd
35
3e
ea
0b
0c
44
19
38
dd
22
df
4b
26
e8
1a
f2
f7
d4
1f
17
e5
1f
f5
07
bf
0f
3b
3b
ef
cc
06
df
1c
34
b9
14
df
44
32
fc
ca
c3
d9
fd
30
04
c4
c5
46
1b
4a
2e
df
23
cf
25
e8
49
e7
0c
41
1a
04
dd
bb
37
1f
bb
19
3a
da
d0
1f
ec
1b
3d
ce
01
f4
23
41
22
36
43
e3
12
18
d3
fa
f4
c9
25
d5
d9
c0
f2
cc
d9
29
d5
42
ed
d6
1b
bd
1f
45
08
bf
bb
cd
dc
23
dd
42
31
16
db
0f
07
ed
32
e3
ec
38
cc
b7
b7
34
d1
26
3d
33
de
12
2a
cb
07
e2
3f
19
d3
cd
cb
30
cb
eb
3d
2d
df
ff
ff
ff
1d
e2
f3
25
e8
39
19
e7
f8
0e
0b
3a
ef
27
33
e8
bd
ef
b8
3c
01
04
cc
2a
13
f7
f9
d0
0a
08
ca
b9
e2
de
2d
bf
d1
d4
f7
09
e8
ce
2b
1f
14
cf
41
dc
e7
1f
43
df
2f
3c
de
10
35
44
00
cc
d7
e5
49
2a
d1
c4
29
d8
f0
10
40
09
0c
1a
cc
be
ba
f9
b5
3a
cc
38
c3
21
26
29
d2
d9
c6
06
d0
d6
2d
41
42
35
13
d0
fa
d2
cd
38
b9
b6
19
04
26
ce
ed
ff
3c
2a
dd
24
40
e2
fd
32
12
c9
0f
35
de
ca
eb
2e
07
ff
45
43
c4
fb
c1
43
31
0a
2a
37
41
d6
dc
f9
ea
33
ea
df
14
d9
42
3a
24
3f
27
30
ce
2f
e7
30
41
c2
d1
d7
ce
fc
17
d4
0f
f1
f6
1c
f2
23
f9
d2
14
c6
2c
16
eb
18
c4
f5
1d
14
23
03
1c
e2
d1
30
3a
12
d7
1e
d4
00
c5
c1
df
3c
47
2d
31
3e
d7
d8
d6
2a
e6
0a
1f
f8
be
4a
e4
34
36
11
ba
21
4c
2b
42
e6
35
fb
11
d5
41
b6
41
d2
15
f6
ef
c0
de
ee
38
0f
30
4a
04
b8
32
df
12
08
d2
19
ed
f2
3b
18
2f
25
24
ef
fd
2e
e7
c8
d0
fe
e7
d1
0f
37
f5
3e
cd
0f
f0
c3
12
3a
ff
0d
35
2c
e2
ff
f1
c9
d9
03
d8
28
b6
4f
05
08
01
f6
4e
f5
40
21
21
0d
15
4d
38
08
fb
d7
38
0f
43
d0
08
3f
ea
0c
4b
2f
f4
b6
c0
12
d6
23
ff
c3
ef
d5
45
04
1b
1c
2c
db
ce
c4
25
45
f5
f0
c0
d3
21
08
c6
dd
e2
0b
37
1e
1f
00
d9
ed
4b
12
fc
39
ca
17
08
c1
da
e0
cf
1b
43
0d
ba
cc
35
cf
f1
12
42
0b
32
20
32
df
34
d1
e9
1f
35
15
f1
f7
ff
f4
cd
eb
02
dd
1c
cb
4a
be
45
16
be
b6
f1
1e
eb
0f
3f
e2
d2
f5
34
29
df
b6
c2
e4
fa
f6
f8
c7
ec
3c
c8
b9
2f
02
ea
49
03
bb
01
c5
10
15
0a
10
21
e9
17
40
bb
d9
bb
d8
01
e6
c9
30
bf
f0
b9
fb
dd
27
44
e1
3a
1d
d2
df
da
30
e1
da
f8
21
22
3b
e5
3f
09
ca
c9
f1
2d
32
30
fa
2d
0c
33
c3
cb
22
c6
1a
3c
0e
fb
1b
fa
d6
bb
c4
07
0b
f4
f9
34
46
12
18
0f
dc
1d
13
f2
d8
0a
f4
20
0c
ee
f4
f5
c5
2e
19
b8
c4
d2
42
e5
e0
13
46
b7
32
14
c6
f2
3b
f6
f8
f0
48
28
13
42
2f
21
f9
06
bd
01
22
eb
2b
33
bf
12
e3
0a
b8
0a
31
ea
ca
e6
db
d0
08
bc
da
ed
d9
e1
08
e9
f0
da
44
fd
43
18
03
32
0f
3d
cc
e0
47
23
40
28
29
ee
b8
b6
d3
bf
26
e3
1a
46
0a
ee
03
00
f1
be
1b
0c
43
27
c8
00
1f
2b
2b
e8
e5
f8
fd
dd
07
c0
47
d4
08
d4
f8
f4
02
dc
0e
0d
d2
42
07
dc
26
bb
26
2b
19
d1
c0
48
11
36
dc
f6
ce
45
3e
c6
31
0d
d6
c7
41
fe
1e
de
08
39
2a
f2
0a
47
b7
da
45
2f
21
d3
ec
db
2e
bb
3d
de
e0
ef
3d
2b
c6
db
48
17
ca
2d
f8
bf
e7
45
02
36
33
d8
cc
b5
28
2d
0c
40
2b
37
07
23
17
48
07
e9
0b
01
be
2e
e2
ea
01
b8
f6
f3
be
03
ed
1f
c8
cd
1c
cd
1c
f4
1e
b8
2e
09
05
1c
1d
fb
f1
04
d0
dd
e7
df
3c
39
00
c1
d4
e1
d3
2b
d2
1a
e0
2c
b6
23
1d
12
e5
ff
38
38
f6
d7
eb
1f
d1
be
25
d4
42
e2
05
41
3b
40
e9
ed
ed
d0
12
1b
46
11
ed
2b
0e
e9
fd
ce
0b
c7
df
48
d7
41
00
24
d7
15
cb
e9
3b
05
c2
2d
45
e9
f0
f0
ef
31
1d
fd
d7
0b
c1
04
fe
bc
31
b9
38
b6
27
4d
e2
e8
2a
02
e2
02
3c
02
0b
e9
ff
cf
2f
06
1e
1e
47
00
dd
df
2b
2c
c4
3b
c5
43
dc
e6
1e
c4
d1
f8
df
1a
0e
0d
23
fb
f8
03
db
b4
d1
1f
30
05
43
d7
fe
08
3e
10
06
ed
e4
40
d5
43
11
42
de
fb
c2
de
e2
35
cd
48
38
2c
fa
39
1c
4b
45
d1
1f
cd
d1
24
2c
e0
43
c9
41
e8
09
01
20
d0
ef
03
17
d2
01
2f
14
dc
bc
cc
d9
ea
c9
48
d3
fb
e0
c8
be
c9
49
da
2c
ba
de
03
e4
d5
35
06
f0
2e
d9
ca
b5
b5
35
f6
ba
2f
c6
c7
4e
c2
ff
ec
2f
f5
14
bb
29
e2
e6
ed
d9
d7
c7
0c
3d
b5
d6
e5
2f
bf
d5
04
f0
bc
23
20
14
bb
0d
17
fa
f6
36
1c
f0
1c
45
db
24
f0
0b
42
32
2c
25
44
ba
ff
35
14
47
f9
d4
d7
e4
2d
f4
0d
cf
31
f1
11
32
20
21
0f
db
27
e5
f8
03
03
e7
1a
28
0a
bc
14
3d
02
39
47
2f
0a
31
f4
e5
21
0f
45
26
b3
00
15
c3
27
4e
c6
34
40
d1
e3
cc
dd
2b
cf
cd
cd
c4
b5
06
3e
fa
09
df
04
cb
27
36
c9
15
49
26
ba
bb
41
39
d3
eb
cd
17
c5
10
17
31
e4
17
c6
e0
2f
0b
d5
43
bc
e6
49
f8
0f
be
c2
e7
1b
11
eb
c1
05
e1
e2
ef
27
44
d3
e7
cb
d4
b7
bc
f8
c8
f2
02
bb
0c
49
42
ec
e3
27
24
eb
1d
1e
e5
e2
18
d7
c2
34
f2
12
4b
1f
3c
cc
39
2b
48
dd
35
fc
be
08
da
42
10
00
c4
37
c4
0a
cd
ed
c0
c5
16
10
34
45
ef
45
dd
32
c7
eb
b9
1b
ea
1c
f5
49
4a
2b
3a
01
2d
fd
15
2c
01
e9
d5
38
19
20
1e
eb
de
22
bf
01
bc
da
30
d8
45
07
d9
fc
e3
bb
f1
d1
be
15
34
be
35
f1
e2
b9
ef
1c
44
31
f0
41
bf
3d
45
d9
1d
ff
0e
3e
e8
24
41
ce
ed
d0
ef
f2
ec
d1
35
00
d7
e5
07
0e
d3
f5
ec
d8
28
f6
17
28
23
4a
11
cf
13
2c
26
47
f1
c0
e5
10
bf
37
2c
1d
d4
1a
d1
fc
bb
1b
b9
c5
ed
0e
0b
13
0f
0b
1b
10
36
ff
ff
3c
33
f1
f0
cb
1e
2d
c9
27
1e
1b
c2
da
b8
c7
bf
fd
0f
0d
e1
f7
02
1e
22
48
be
e0
20
f3
ea
18
cc
de
e9
ff
18
f5
35
f0
bb
ce
20
39
45
fd
ec
e9
31
c3
47
2d
3f
c6
f2
f7
cf
48
f9
21
d3
eb
1e
06
cf
01
10
0f
3c
28
3b
e9
0f
ee
de
c6
d4
d6
cb
d6
41
f8
e3
de
d6
f4
b8
de
21
45
e6
c1
b7
47
ec
32
29
c6
c7
cf
30
29
2d
c0
1e
e4
c7
25
2b
f6
e2
ef
b6
26
f1
36
12
c1
c6
ce
f4
d7
ed
f8
f7
37
00
c0
1f
ee
bc
01
27
f8
d8
1f
02
d5
19
c8
e7
cf
07
45
da
ca
cf
e3
d4
44
1b
cb
e0
fd
29
e6
13
3e
bd
24
c4
ca
d2
3e
f3
0d
05
13
c5
18
4a
b8
d9
e5
32
c6
1c
fa
ec
1e
bd
08
2d
bd
d5
e3
be
f6
2c
49
06
f2
e7
e3
00
46
f0
f2
c0
11
31
44
0d
c0
b8
fc
e2
2a
d0
c2
1d
d3
33
d8
2f
d3
f1
f4
12
1a
f2
b7
03
3f
bf
30
e7
2d
18
df
38
33
f8
e6
f4
cc
e6
c2
e7
0a
e3
ca
4a
fb
11
ea
12
d1
35
29
dd
11
fd
03
dd
f1
bd
e2
03
f3
11
2b
1d
14
30
18
0c
bb
e8
0c
47
26
ed
bb
e1
04
d8
17
c1
08
ea
1e
e7
db
c1
c2
31
f3
eb
3b
b8
e8
2a
cc
35
12
35
fe
c0
fe
f1
4b
d6
09
f8
bd
44
bf
d0
ba
cf
2f
2e
db
21
cd
3b
21
3d
22
14
ca
c3
fa
e2
ea
ef
da
d0
c9
14
cb
1e
fa
be
c4
02
bc
22
b9
41
c9
25
1d
cc
e9
25
11
1b
ff
30
1c
48
c6
e9
ee
dd
e8
ea
37
f2
bb
c3
45
c3
20
3b
cd
f1
d7
1b
30
2b
e4
f8
2a
0c
21
ca
11
03
c1
ea
f8
08
d7
ea
e6
ed
ea
dc
29
26
ef
29
23
b7
f1
bf
e3
04
46
31
db
25
e9
e7
cf
3c
f8
c3
f6
43
d5
ca
3c
32
4a
28
48
2a
38
ff
c0
44
de
f6
de
23
ea
bf
e1
40
e7
c2
43
2a
e6
fd
47
2b
d3
09
39
ba
0a
b9
31
1d
16
d4
37
cc
25
01
18
2c
03
27
33
c8
14
32
fe
c2
c4
bb
37
2a
bd
f4
ed
c3
11
22
0a
e1
bd
be
38
ed
17
3b
ca
e0
25
36
eb
44
09
41
13
1b
cf
bd
c4
fb
fc
f1
0b
ce
d1
ec
43
15
00
2d
e5
e0
36
fd
21
bb
45
03
2c
1f
e3
f3
1d
07
c1
2c
ee
2d
e7
0e
d8
c3
18
3e
1e
c7
d3
bc
ba
fc
d8
46
f9
25
d0
2d
28
2c
ed
e0
c2
2b
ee
42
ee
b7
3d
e0
f1
bd
14
e9
e0
fc
39
ba
0b
4b
c8
25
f7
cd
0e
21
da
47
c8
be
48
00
09
dd
ee
e5
e9
2e
db
e6
c7
d0
c1
40
1c
2e
35
3d
46
f5
fc
2f
13
15
d5
f9
e8
2f
3a
19
08
05
28
0a
3e
28
15
2b
b6
29
00
cf
26
ff
03
d5
3e
0d
47
4b
fc
d1
dd
0a
fb
bf
22
f0
ca
b6
bb
12
02
09
0c
c9
1b
c7
13
35
39
bf
e8
02
2c
fd
3f
d4
ba
3a
c6
3f
45
46
f7
48
24
0e
f5
16
e8
c3
00
38
4b
43
f8
07
d8
ee
47
11
e0
0d
31
fa
bf
25
cb
48
b9
c8
37
fc
be
f0
ed
fb
ca
4b
f3
07
25
ec
ec
d0
fd
e7
ca
0c
c6
cc
d6
04
ed
ce
c3
db
b6
47
bd
fb
01
bf
bf
de
c8
ea
15
d8
13
f3
0a
22
ef
03
02
2d
c2
22
c4
33
00
23
ec
32
e3
d5
eb
02
b8
4d
31
27
f9
d7
48
e3
bd
00
29
2d
1d
3c
2e
12
f5
c1
00
28
c8
ef
0e
1e
d5
c1
35
e2
22
bd
38
35
2d
09
f9
e9
d2
07
45
f6
28
fb
ea
f6
0b
11
c2
40
f6
b7
32
d9
3c
e6
3b
33
e4
fa
0d
2c
08
be
48
bc
e8
01
3b
05
d6
c7
d0
c3
e0
f7
ed
36
29
00
f1
bd
30
fd
23
1e
29
ed
19
18
c0
f8
3e
18
fd
d7
d0
2d
23
de
ff
c8
e8
30
3c
26
34
f0
3a
fd
d3
fd
19
f6
23
bf
e9
d5
41
26
e3
f9
30
02
1b
33
17
46
11
d1
b9
28
e8
43
15
e4
b7
e6
2b
ff
f2
db
26
27
d0
02
3f
dd
ed
31
16
f2
42
3a
30
fa
b7
1f
c0
3e
41
33
34
fa
10
20
f3
21
20
48
49
d4
fc
f6
f9
b9
4a
3a
25
38
49
17
32
34
48
48
2a
00
fd
e6
3a
f2
cf
04
f2
e2
3f
13
df
14
d6
eb
21
bc
34
21
1d
cb
ce
38
d0
f8
e7
ef
da
c2
27
dc
fe
c3
28
f1
f3
e4
14
2e
1f
43
30
32
e1
02
0c
25
ed
30
00
16
bd
e6
e4
2b
ce
3b
0e
f4
c5
36
3a
d1
d1
01
fe
f5
d8
f1
40
f6
10
f9
fb
0c
b7
3c
bf
49
c0
0c
43
ff
42
ea
e7
cf
f4
e4
e2
20
dc
ef
b9
0c
bd
35
da
32
df
2e
02
d0
12
00
09
f8
f2
47
20
ef
f6
38
e6
2c
e6
1c
29
0e
3a
bc
c3
e5
f1
c9
ce
3a
ff
31
1d
f6
3c
46
c7
49
38
25
29
e4
d9
d6
d9
be
28
1e
bb
10
dc
38
fb
e4
ea
ba
d7
db
ed
32
e1
b8
f3
44
27
09
d2
21
e4
2f
14
21
11
33
e8
08
ea
20
e3
2d
da
cb
00
d1
39
43
02
05
0e
fe
ed
f3
43
ed
47
be
c8
fa
10
18
46
e8
e0
e9
37
fb
d3
e0
3f
2f
f3
f6
07
30
19
c9
f6
dc
f9
c2
d6
23
b9
bb
d6
38
3b
46
bc
12
24
3e
c6
fb
fa
da
c7
42
24
b6
e1
e6
48
1c
1b
29
d2
e1
47
34
ea
0f
df
dd
f9
2b
bc
17
c5
d7
e8
bb
09
f9
c3
f7
29
48
ce
04
e1
15
f0
3e
36
27
e7
40
38
fa
0d
29
ca
fa
f2
49
c9
2e
2a
36
e7
07
0f
d1
3b
29
40
f4
13
ea
34
e1
0b
e7
b7
ef
14
34
e5
e4
c5
2b
1e
da
0f
c0
b9
45
38
3e
fa
d4
c2
c8
29
16
30
1d
08
18
ef
e1
ca
d2
db
c5
42
3c
e7
27
ba
fd
25
01
1c
16
2f
28
27
34
1e
20
e4
d0
14
cd
ce
ca
0a
1c
24
c0
d6
37
fc
39
dd
3e
d4
1b
2f
10
0e
c3
fb
e8
4f
d1
44
f0
ba
0e
4b
1c
09
e4
4b
e6
12
f2
34
f7
2a
b6
46
26
f8
15
43
f3
c1
1d
2a
3e
29
2e
b9
cb
07
fb
db
1e
38
27
2d
0a
fe
d7
ea
ca
f7
c7
29
e9
15
0c
e1
fc
32
ef
3e
38
d8
3e
c1
fc
c2
4e
bc
05
31
06
32
15
f9
fa
bf
20
ed
07
3b
b7
12
3b
d0
e7
cc
d0
c1
00
f2
12
12
1b
2e
20
25
1e
02
f3
42
e8
ca
0c
2a
dc
35
c6
c6
2e
10
d5
bb
04
bb
fa
0e
c5
c6
32
0f
d2
de
2a
46
fc
bc
df
ea
0f
30
2a
d7
cc
ef
f9
0d
0b
cd
46
cc
d2
12
3c
37
32
f2
c1
0a
e9
c2
e8
48
40
08
21
ff
0f
ee
ee
2b
25
17
de
32
f1
0d
37
12
f0
23
cc
0f
f2
1a
28
3b
23
dc
0d
d8
be
fd
f9
48
d0
04
fa
f0
31
42
1e
2b
db
11
be
2b
18
38
0d
d2
bc
bd
f5
1c
be
45
f7
07
1c
d3
e9
c9
b9
35
c9
29
33
fe
08
e1
ee
1d
f0
1a
43
c2
cf
ef
bc
13
20
e7
14
b8
e1
cd
b8
f6
c8
1f
dc
cf
d2
cc
de
2f
2f
fe
13
27
09
05
df
fc
3a
0a
ba
3a
14
0d
47
3a
b7
d4
2f
cb
19
36
31
18
26
c4
14
34
1a
d1
c4
1e
3f
36
0f
1a
c9
0c
2a
4a
2b
34
d1
cb
1c
43
41
3c
f1
00
1f
13
f6
18
33
fa
21
41
d5
07
c5
03
c4
03
f0
1c
38
ea
34
c4
c2
c5
e1
c0
c2
e7
bc
e3
3f
e2
18
e1
09
ee
32
eb
ce
c8
de
c2
dc
f2
07
36
c6
2e
e5
e1
e8
03
c5
cd
ef
45
c1
49
48
31
f8
04
c7
0d
d3
44
be
ec
44
47
e1
c7
14
ea
fd
14
b4
e3
cf
22
e4
26
31
0f
2b
27
c9
f0
0e
11
e5
d9
cf
da
cd
be
b5
05
49
0a
f1
01
46
21
c7
ef
45
2e
14
25
2e
47
01
cf
fa
c1
01
30
bd
d9
0d
44
df
0b
e4
3f
1e
30
3d
04
3f
f5
ea
cc
46
f3
c2
fe
db
45
ef
d0
37
48
ec
0d
2f
28
2e
d6
36
0d
22
d1
e4
02
e8
20
d2
e7
db
09
45
25
ee
f4
3c
d8
1f
02
fd
d2
bb
fc
1d
2e
23
43
b6
3b
33
b5
13
f2
df
e3
bc
17
3c
1c
16
d5
e1
e7
1b
34
ea
43
fb
c8
e7
47
e1
24
2b
cb
39
42
1e
34
e9
df
bb
e0
c5
e4
c3
47
e2
1c
f6
c4
c0
c4
16
e1
ce
e0
c6
e9
22
13
db
c4
39
fe
03
46
01
3d
bd
0f
ef
fc
cf
30
10
e6
3f
01
1b
2a
ff
3e
f7
f0
f3
3d
3a
b8
c0
cf
35
46
32
42
1f
3c
be
bc
d2
f7
41
0a
49
35
33
38
2a
11
d9
1e
f2
1b
dc
bb
08
2e
b6
c2
ef
3c
f0
15
34
00
18
e0
3a
e1
26
bc
c0
02
f5
fd
ff
d1
ea
17
3f
44
14
02
fa
0d
da
35
e0
1b
da
c7
25
ce
f9
e3
0c
1e
f8
01
18
17
0c
2c
c9
c5
08
14
34
29
27
ef
d6
f9
da
13
01
ff
c2
d2
2f
d2
1c
37
49
08
09
18
f8
0e
19
f5
ed
1f
10
ba
b9
ef
27
13
e9
42
d8
24
1b
e4
f9
48
15
d1
fe
40
29
36
d0
c1
dd
01
d6
e4
02
30
cb
d8
3d
19
25
c9
d1
2e
28
d2
d0
24
f5
f4
29
e2
e2
e0
2c
3d
d7
fb
0f
da
d3
43
da
c7
eb
ba
b6
01
cb
f2
1c
3e
e4
47
f8
da
31
e4
25
f9
1c
d0
e6
12
bd
1c
36
43
29
c1
fa
f1
f8
32
cb
c0
30
31
d7
e9
c9
00
f3
02
e0
46
e1
dd
29
01
e3
3b
3a
f1
ca
f1
c5
bb
f9
bb
19
22
ba
0c
11
b8
ba
26
0e
36
f1
1e
3b
32
12
c7
39
bc
b9
d6
fa
35
17
f0
40
1d
19
40
ff
3c
49
f6
d7
ff
3d
0c
f3
f2
e5
33
cd
40
0d
cd
3f
39
37
c4
46
cf
c9
cf
11
2d
33
0c
c6
f4
e9
bf
fd
ce
ec
ba
f4
00
db
cd
3b
fb
09
ec
e3
c2
d6
46
3a
f8
14
e2
14
db
f1
29
f3
05
43
2c
3c
3e
34
c9
e0
f8
1e
1a
0b
e8
46
e3
0d
31
bc
eb
03
0e
19
11
ea
c3
db
f9
fc
16
20
44
28
e8
01
16
fd
28
34
01
3a
fe
16
13
f5
21
37
2b
fc
f9
05
35
e0
15
05
30
23
2d
c2
46
ed
d8
e4
2e
d0
ba
fb
bd
c2
f5
bb
08
d0
24
43
c8
ff
c4
42
f9
b9
ed
2a
b7
41
28
be
27
d5
11
dc
23
be
3d
32
2f
c1
f2
01
fb
20
3d
40
1c
e5
de
0d
f4
39
f2
12
e0
e2
39
f3
2d
4a
b8
c5
2e
f4
15
c3
32
d4
3c
f6
de
09
3d
d4
11
f1
d9
d1
00
f6
22
ec
bb
22
1e
2d
e1
f2
ed
ec
d5
3e
48
11
fb
0e
22
24
ec
2e
d1
f2
20
e6
d4
c5
3e
1e
fd
ee
0c
41
d6
3e
0f
09
c9
32
37
1b
f4
0e
38
e6
1f
15
35
1b
b5
10
0a
d9
cb
3c
42
d6
1f
03
1d
c3
ec
dd
d2
3f
05
2c
fe
18
e3
e4
de
44
ff
37
13
e8
c9
c3
1a
d0
c4
44
c0
28
3b
c6
ea
49
22
3b
4b
04
18
e6
06
13
2a
e3
b6
1f
f0
33
c0
0b
da
e4
49
1b
c3
3d
35
29
f7
42
c8
c6
ea
12
bd
c7
27
ba
e2
c5
1d
0e
df
00
f3
fe
32
02
09
3a
e6
f5
eb
0a
3e
08
b8
06
f7
ca
0a
02
2b
c7
3a
c2
0d
c8
1a
15
2c
c6
30
09
58
f5
f3
41
2a
0b
14
11
0d
ec
1e
c8
41
36
b6
07
30
de
51
1d
dc
22
5e
16
0a
24
db
2f
3d
39
45
be
e8
15
b9
ce
06
07
dd
e2
38
1f
fd
b2
13
04
c6
cc
3c
27
4c
2a
cb
3f
03
b0
5c
3f
5a
d9
b9
44
30
1a
15
fa
00
51
00
f1
1c
32
1b
ef
2a
21
35
23
13
ce
32
43
4f
02
b2
c3
10
1d
c6
3d
2b
bf
14
d1
e9
d3
e3
eb
f0
d2
20
0b
d1
ba
20
e3
c8
df
f6
52
2e
c6
dd
c1
36
fe
16
29
1a
dc
0a
02
26
24
11
0f
d1
29
20
e2
37
13
4b
1d
0d
ff
e5
4a
4b
3d
06
39
e4
b6
14
d7
cb
ce
52
0d
df
35
d5
03
18
4f
19
1f
1d
e7
e7
08
29
d6
41
2b
c7
bc
ca
07
bc
cd
fe
46
19
f8
0a
e7
d4
06
14
28
14
c6
17
2e
0b
1e
b8
d0
fa
e2
04
0e
51
df
33
f4
f5
02
e5
fe
43
ce
c2
05
27
28
f6
04
06
d9
da
e7
11
f6
0d
ef
14
c9
3d
fe
36
0f
45
14
1b
3f
bf
e8
cc
0c
dc
20
d9
e8
d5
39
ce
c3
29
17
cf
f9
eb
df
25
e5
fb
de
43
eb
de
c8
15
c4
45
25
44
41
ca
21
2c
3f
08
3a
31
b4
1e
ca
30
cf
c1
eb
e6
dd
02
ee
ea
f0
04
e8
ea
13
3d
c4
20
c0
01
e5
ba
b8
fb
e7
bc
f1
ed
3c
c4
32
b8
0d
11
e0
ba
d6
ea
09
2b
ff
cd
13
13
0b
1b
e4
33
03
1b
1f
15
d1
2e
12
d7
f4
d6
e9
03
32
ca
20
21
2d
bb
01
c0
d1
ef
e6
18
2a
40
2a
21
d4
d3
12
fb
ee
d1
1f
be
ef
14
bc
bb
d5
be
c5
d4
08
1d
d3
e3
cb
26
cf
3a
ff
e6
29
35
2a
44
bd
ba
ea
cc
b7
26
d8
15
bb
ea
d4
c0
fd
ca
2f
05
f9
e2
e9
06
f3
e4
dc
0c
39
ea
1a
13
b7
1f
3b
32
bc
b8
47
d2
45
c8
c3
de
c7
39
f7
0e
c3
f7
24
ea
d0
d1
42
e3
04
fa
c9
19
b9
bb
da
f0
3c
0b
36
32
e7
1b
bf
dd
f0
e1
c1
25
11
da
c3
fb
bb
ca
da
cc
c4
33
cd
ef
1e
f9
c1
3a
05
c9
1b
17
1c
47
33
3f
ec
07
3c
ff
f8
d1
36
11
ee
18
49
18
e2
48
f3
b7
c5
23
0b
0d
0b
bb
f2
be
e7
2c
ec
ff
c2
37
f3
48
05
b8
f5
d1
c0
41
05
2a
43
5a
e5
cb
00
f5
d3
13
da
f2
46
f8
ff
14
c6
ff
ff
1a
3c
e5
49
f8
0e
24
27
57
c1
e8
1d
f0
1b
2a
18
f8
59
26
b6
15
e3
3d
16
bc
15
ff
d8
26
28
f9
c3
61
e8
fe
ec
0f
c8
40
fa
55
0c
1d
c6
ad
16
4f
08
f6
ba
d1
55
48
03
f2
42
c8
03
c4
1c
ea
e1
c3
1b
f7
37
33
03
24
2e
f3
db
e8
0e
de
0b
e4
20
de
d0
07
cc
c2
1a
ef
f7
20
f9
b6
0f
0d
18
00
0b
cf
33
1e
bc
25
10
32
47
13
bc
1f
0a
13
e8
dd
47
c8
26
b9
37
d5
e5
37
f3
39
1a
42
c6
2b
e9
f1
ea
dd
fc
c2
0a
ef
d2
37
07
d8
3c
c8
ff
28
c0
f9
dd
ea
d9
da
45
e9
38
16
d2
bd
34
1a
22
24
0d
dc
2b
0d
f6
41
b7
b6
c3
36
e4
1c
fe
13
c6
dc
02
f8
3e
e0
1e
0f
2b
da
26
12
eb
f9
43
e3
45
f5
40
c9
fc
0d
2a
bb
40
2d
04
16
d6
ea
d6
cb
1d
38
f1
c6
ed
b6
ed
2d
cb
01
3c
15
e6
49
c8
fe
db
08
13
f5
e1
d9
fb
44
29
30
f6
1d
3c
23
11
d8
e6
dd
c7
c0
cb
0e
c8
d5
14
c2
44
bd
f8
01
41
4a
47
f8
3c
f6
d6
dd
12
f9
14
24
3b
e0
1b
0e
06
16
f1
c0
0b
f9
ea
35
fe
f6
28
f8
28
b3
0a
08
c2
db
e4
ef
41
eb
1d
b5
f7
3e
f1
1f
32
bb
d8
c3
02
e4
03
37
05
4a
f2
32
f1
de
42
c3
d8
ee
0a
f1
c0
44
d4
3e
21
bc
4b
c7
35
36
bc
03
d1
e6
c3
45
d6
cf
36
4e
0a
35
19
29
13
e7
e0
16
1b
3b
d2
da
b5
1e
cd
c8
08
be
d1
44
3e
2f
22
3e
b8
dc
41
10
47
16
c4
b5
49
32
c8
f2
2a
26
20
21
de
41
43
04
c6
c2
3f
35
42
03
c5
2b
04
bf
0e
d0
d7
fc
41
35
03
e9
08
fd
f8
d6
fe
ca
07
0e
e4
f4
35
4a
e6
df
1c
20
3a
17
cd
1c
b7
00
06
f1
20
ec
47
ce
c9
d4
c6
ed
e7
23
fc
34
15
3a
05
f2
02
2b
c1
2e
21
31
c5
f0
f6
37
25
f1
02
d2
03
fa
03
f8
38
2f
05
f7
49
4a
fa
24
e0
27
fe
03
fd
38
1d
10
42
35
21
04
3d
cb
18
34
1a
e5
fc
2c
be
bb
f0
36
fc
e6
25
d9
3b
3f
28
dc
c3
dc
21
27
0f
f1
0c
e8
ed
21
e4
30
eb
be
1c
d1
02
bb
d3
ba
e6
0a
34
c4
04
db
ff
c8
23
c8
0e
22
d1
01
e7
24
0b
35
de
eb
32
27
ea
ff
41
ca
f5
30
d8
b7
e1
e5
46
35
2a
45
32
0e
ba
04
e2
14
49
4a
e5
f3
28
b9
03
01
eb
fc
f7
36
35
d2
0e
05
1a
f5
fc
1c
00
19
26
35
0f
15
2c
e6
bb
41
fc
2c
e4
ed
13
29
ff
e0
0d
34
ff
bd
28
10
ef
2b
ef
cd
26
44
4b
40
11
e9
c0
00
16
e3
d0
fb
0c
17
c2
18
d8
02
14
25
f1
b9
bb
43
f3
fb
2a
2e
d4
41
25
26
e9
27
3f
b8
ee
32
05
f2
b8
25
01
fe
eb
d7
cc
12
4a
d8
b6
10
bf
08
da
33
e9
10
35
11
48
00
15
17
b8
bc
ca
d7
40
16
3b
b9
16
3a
cd
d1
29
1a
eb
1a
d4
09
f1
d7
12
be
00
b9
24
07
fb
12
ec
2a
ec
12
fd
46
10
ef
2a
bf
45
b5
c4
e7
fc
13
e3
c7
c7
3e
45
34
e3
f8
2d
41
f9
de
cb
e9
17
3c
bf
e7
bb
e2
32
24
ba
43
26
c2
41
e4
04
d0
bc
eb
02
26
3f
0e
05
00
bc
e5
00
c3
e2
02
17
da
bc
bd
b7
44
fb
3e
c8
c8
44
f1
e4
f0
10
04
2f
d2
b6
f8
c2
e8
d2
cb
06
e0
c1
2a
df
46
3c
31
f7
33
ca
d8
30
dd
de
45
d9
3b
f9
2c
0d
f8
2e
42
1d
f3
36
c3
ef
fb
c6
d0
ed
0d
42
e1
e4
14
26
43
b5
35
46
1f
c8
ff
2f
03
19
e4
d6
fb
04
c2
30
d2
00
24
da
cc
d7
35
fb
ed
38
09
11
23
3e
3b
44
c1
43
06
2e
cb
03
08
31
b8
e2
27
1a
e2
13
ca
ce
02
e6
c3
29
2d
33
d7
d2
10
fd
2f
c6
d3
13
cb
fb
d9
f0
0b
e4
04
42
de
f1
44
e5
e8
c4
44
0b
05
32
c9
0d
09
e1
01
c3
d2
2a
fd
c8
14
3f
f2
3a
1b
ee
18
44
03
3b
40
bb
38
fd
c4
bc
04
02
34
f1
2d
21
fe
ee
02
36
44
d9
ec
ba
38
3a
f3
d7
13
42
03
b8
40
18
49
15
09
dc
33
f3
c2
cd
f7
b7
c2
db
d1
12
25
eb
18
c2
c4
e7
c2
e2
03
3a
17
ce
47
25
27
c0
da
39
f7
05
17
1e
d1
e2
08
23
c2
c4
3f
28
28
e5
dc
09
f5
1c
3b
f4
42
c9
c9
e8
db
e0
ff
e3
fd
33
43
e5
e6
2c
2c
49
e0
2b
00
c8
02
29
ba
da
2a
fe
16
48
e6
35
0a
e2
4c
d4
49
29
27
1a
d1
42
0b
b7
c5
c3
39
d1
c5
3a
33
da
1a
d9
2f
da
dc
fa
27
f3
06
2d
d9
fc
0a
b9
35
3b
ca
b8
dd
bf
cf
14
22
19
b8
e2
0b
f7
bb
e1
06
0d
3e
f4
f6
25
fc
24
35
0d
15
43
31
dc
ec
fa
fd
c7
41
e7
ce
1c
fa
df
d7
c1
09
cf
0d
37
10
d4
f7
cb
32
bf
ce
22
22
f7
e3
f8
c6
e4
ea
d6
e7
05
14
e2
08
d9
d9
e2
00
24
c9
c3
ef
ff
ce
cc
1c
11
40
e4
d7
06
cb
24
3a
dd
b6
17
c1
b6
ce
49
2c
e7
01
fe
dd
ce
0f
b8
3d
01
d1
c2
bc
de
00
3b
12
c9
04
18
f1
12
19
ca
47
b6
37
d0
2f
21
06
02
39
c9
dd
cf
f0
d2
f1
41
25
d3
cb
35
06
dc
23
ef
b9
f2
cf
46
eb
05
30
bd
32
2d
b7
28
40
d7
c4
e9
11
15
c9
0e
f4
df
cb
bd
1a
e3
ef
cd
47
d0
fb
47
f5
cc
e5
c2
ba
d7
1b
c1
c9
ec
22
f2
11
3b
c0
bb
f7
ff
47
05
bc
3b
c1
f0
36
db
de
02
48
00
24
ee
25
d0
43
e4
d1
01
e9
40
e2
00
20
e5
b9
00
2c
20
34
32
d2
03
1e
34
cb
c7
18
cd
1a
37
b9
c4
27
c0
d1
45
ce
d2
14
c0
dc
0e
fc
ec
35
fc
c9
bc
f6
b7
bc
22
27
fe
03
bf
27
31
d9
da
d2
fe
00
25
2f
c1
3b
3a
2d
21
f6
1c
bf
2b
2c
2d
46
0e
33
3b
3c
2e
be
d2
02
44
4a
d7
2f
45
be
47
46
46
d6
25
07
10
3d
14
17
46
f6
28
12
35
e2
ba
e6
1e
e3
ca
0c
fc
f5
ef
36
f2
f2
00
42
24
09
c9
c4
fe
39
c4
04
c8
09
3c
ce
c6
2b
b5
10
be
07
37
df
f7
10
0f
d1
fa
35
0e
f2
08
3e
26
08
e8
0f
df
27
09
f8
bd
e6
ec
d0
c2
37
47
bb
16
de
01
e4
ef
40
ba
36
fe
dc
39
f1
1a
43
0a
da
14
d5
e2
bb
b8
de
f4
38
c3
2f
1c
22
24
f9
dc
24
40
38
c0
fa
33
c9
cc
2e
27
eb
40
e1
03
25
ca
d8
1f
01
4b
20
db
d8
ee
2e
00
f1
e8
c1
29
46
d6
3d
e0
cc
bc
19
25
cb
e2
d9
25
36
11
ca
37
01
d8
b8
c1
27
fa
1d
bf
0c
de
47
d8
f9
d8
18
c7
2e
bf
d2
13
c9
fa
4c
3d
14
00
3e
f1
3a
03
f1
c1
eb
bd
30
ff
e7
18
04
36
32
3d
34
f7
06
c7
db
c4
36
05
f9
13
18
28
43
d3
1f
f5
d4
b7
2e
fb
f9
1c
1c
10
36
0a
e2
c9
c7
14
e8
ee
c8
b8
e8
d8
20
17
09
bc
06
d1
d1
42
e8
f5
fe
ce
12
c8
3f
3d
1d
05
ca
39
e2
36
07
d6
08
39
cf
2b
38
df
36
ee
48
cf
cc
0d
c2
23
36
34
4a
44
1a
0f
43
3e
d4
48
b7
d4
44
f0
bb
15
23
e3
ef
1a
49
cb
10
d0
35
15
11
d8
47
1d
10
ba
d3
1f
44
45
20
bb
39
2e
d3
0d
cd
f3
d3
21
fc
e3
30
1a
f0
32
46
fa
16
06
2e
c1
41
d7
fb
eb
00
16
e5
e0
f9
fb
f4
dc
e8
d9
da
e0
eb
20
c8
e9
47
be
e9
ee
44
f8
17
ee
0f
34
da
cf
bd
16
14
32
d9
e5
ff
1b
f4
49
c2
40
fc
3d
43
09
3f
41
10
ce
d9
b7
07
30
17
2a
1b
18
fe
1a
cc
b8
3b
0e
be
37
b7
40
13
c2
de
bb
01
34
cf
0a
39
d0
2b
d6
03
3c
38
49
16
fe
d7
11
49
00
22
4d
46
2a
39
d5
ca
f2
20
16
37
c0
02
c2
29
bf
f0
2b
3d
c6
1f
2a
21
3e
e2
41
ca
18
cf
12
1a
00
d1
37
05
ef
24
10
28
02
cd
10
4d
fb
de
13
33
2d
eb
1c
ee
eb
28
00
cd
3b
ba
d0
01
da
1e
e9
30
f6
f7
f4
b8
bc
2a
23
db
f2
f3
dd
f4
e9
f8
c9
d7
c4
eb
0c
02
30
cd
d0
d2
c2
cc
d7
21
12
07
e3
fa
46
37
47
14
3c
bc
cb
26
ef
f4
38
29
46
f1
3b
b6
3c
ba
07
cb
0c
d3
4a
c8
2a
28
b8
1e
2f
2b
21
e9
c8
40
13
d3
f1
33
19
bb
22
fb
c3
d7
13
0f
2a
1a
02
f9
dd
ce
d8
d0
19
c2
f8
1f
e4
e4
10
e8
c1
39
d3
b9
cc
0c
fb
e1
ea
fa
db
12
33
3b
43
b7
ff
1d
d6
2c
20
2c
ca
06
20
c9
44
e0
24
1d
0d
1a
12
d9
e5
3f
ee
c4
cf
ee
f3
dd
ff
d2
05
4a
c1
1e
c5
fa
0c
de
34
c8
47
cd
1a
da
23
cf
17
09
f0
0c
28
d0
b6
2a
e3
11
d3
e7
41
c7
c4
bc
1d
2c
12
d0
49
3d
01
c7
3f
09
13
2a
43
3a
ec
de
f4
f8
dd
fe
d0
bd
e0
eb
e5
23
cf
05
fd
08
d8
e5
de
3d
c6
e0
d4
e7
ba
d9
3d
44
c2
ec
39
f1
14
d7
2e
cc
30
e6
39
0c
fa
c1
bd
ba
bf
b8
07
fa
fc
d4
04
38
bc
46
e8
dd
c1
3f
cd
d3
c6
13
0f
2d
02
bd
d0
24
08
27
35
d1
0e
15
c6
f8
0e
3d
c0
23
45
3d
c7
11
12
1d
c7
31
0b
c3
19
0e
08
d2
d3
ce
ca
36
39
42
33
be
f8
49
3f
01
e7
1c
20
ea
03
fa
24
2e
c0
d2
37
48
3e
43
25
0f
39
39
44
10
33
49
21
42
f3
d5
be
ff
f4
29
d7
14
d9
ca
f3
bb
cf
ed
45
b7
ef
f1
f1
ba
cb
b7
cf
d0
2a
bc
11
d0
c0
d7
ed
e1
19
db
47
f7
04
2d
d4
e0
48
42
d7
0d
b7
d5
d4
d7
b8
22
fa
43
14
c5
00
b8
47
d2
d0
20
c8
d0
ba
41
cb
27
fa
ee
e9
f2
21
cb
41
d5
13
b9
e8
b9
e6
31
d0
c1
24
32
d6
ff
46
31
ee
dc
fd
cd
f7
13
b7
fa
32
ff
28
1f
1f
38
1a
f6
e6
ef
bc
c0
24
46
1e
eb
ed
27
0c
b8
0a
36
b9
c0
45
e9
15
03
06
42
dc
d8
b6
20
df
47
ec
1b
db
f3
2c
1f
39
e8
f0
12
47
e9
f4
3c
34
fe
31
30
32
df
3e
01
c3
f2
1c
24
2a
df
e1
1b
c0
12
d1
32
d5
4a
02
3e
28
d0
e3
38
40
02
24
43
e2
1d
bf
06
fc
44
fe
3c
3e
21
cc
4a
da
3b
24
13
ea
f3
22
1b
ff
c5
0e
ed
34
ff
2b
d9
1e
e3
25
06
44
29
b8
0f
b9
e9
b8
bb
3b
ba
11
45
28
08
03
41
dc
ba
08
2c
e0
10
b6
35
03
e3
c5
e1
1a
4a
ff
1c
d5
ff
3c
e2
2c
45
2c
3a
3a
fc
0a
2c
15
c2
00
1a
24
3f
f2
0e
44
e0
f3
29
1d
29
3c
c6
f2
30
c1
b5
e4
e3
0c
f6
2a
1b
df
ca
dc
46
13
06
3f
f0
2c
d4
f4
34
f5
ce
1c
e7
ce
45
d3
0d
db
f7
35
28
ea
dc
c9
e6
40
40
0a
c5
31
c2
0f
ee
de
c8
13
c7
de
f6
c6
f2
06
e7
be
0e
3a
10
28
08
0a
d5
3a
b6
04
2a
01
34
dd
3d
bb
ee
48
f9
d9
e2
b9
43
23
0d
34
31
d3
f3
0e
26
07
2f
0b
27
21
23
ba
cd
0d
c5
19
de
c2
42
1f
1a
15
16
df
2c
33
0d
df
40
b4
d8
fb
2c
e7
ce
2e
cf
1a
c5
49
2e
40
36
29
03
34
1f
d8
be
26
0d
21
c7
c0
48
31
38
c3
01
f2
13
04
48
c6
cd
16
1b
ba
fa
de
c6
dd
24
20
10
cc
f5
48
0f
33
34
d8
c4
1c
1c
23
35
e5
20
ca
d9
c0
ea
e0
1a
bc
39
2c
bf
e1
36
f2
10
17
08
e4
ff
d5
01
bc
f2
49
d2
2d
fa
cb
0c
26
26
0e
1a
bc
f8
ec
23
df
e6
de
22
0b
28
0d
21
d2
45
d8
f2
19
2f
26
0f
34
0d
2d
36
1b
2f
f6
fb
e2
22
e4
ea
c7
33
ef
22
41
f2
e2
03
16
c5
21
47
fe
f4
d3
39
38
cf
30
c5
3b
4a
d3
22
27
e5
be
f2
da
1e
d1
2a
d7
46
25
d0
18
0f
ba
db
4c
ba
e8
fc
3a
04
c4
2b
1e
cf
ba
cc
e4
eb
fa
c8
d1
d4
da
0b
46
1d
eb
0b
de
0e
ef
fb
24
c7
3e
e0
07
ba
0b
df
3e
ce
46
e3
d1
48
ef
e4
e2
27
bd
ca
ce
3e
06
e7
de
f6
d6
e4
3f
2c
e9
2c
ea
41
c9
c6
be
47
3b
e1
e9
d8
f8
1d
c9
42
f4
33
47
05
07
0b
e3
43
49
0a
ca
18
24
d4
bf
d1
c9
d1
20
28
d1
37
e3
09
d3
d1
15
41
fd
2c
19
de
14
1f
e9
db
39
fa
34
c8
1f
d8
e9
fe
2e
d1
3b
04
e5
08
b8
22
d1
f8
c6
e0
3b
26
c3
c6
da
26
ca
31
08
be
38
01
17
dd
d9
42
47
f3
eb
f9
04
d8
d7
e9
0b
29
0d
e8
f1
f8
1c
45
e5
b9
03
07
06
3b
fb
d0
c7
d3
3b
42
1f
ce
f2
c5
32
36
47
fc
02
ce
28
21
1a
0d
dd
2f
f1
1c
f9
bf
14
f7
d5
ea
2f
f7
42
ca
f8
c0
38
f6
0c
cf
14
14
1d
2e
cf
da
2d
1a
27
d2
ef
cc
e2
03
f0
02
20
e2
0f
f5
02
08
fd
19
23
c3
f8
c4
e4
fb
ee
43
1e
db
f8
10
12
0c
bb
b5
e8
09
36
38
f1
f2
c1
02
ff
13
0e
df
f3
be
40
f7
c3
02
4a
bd
f9
de
13
fd
ca
d8
b9
49
49
d8
b8
36
ee
d2
0e
26
14
29
00
2e
19
35
e3
2e
d8
32
38
c0
d2
43
2d
cc
d0
ce
e1
42
db
fe
19
df
cb
d6
3f
05
1a
2c
f9
d8
f8
28
ba
bb
21
2f
44
3f
ed
e0
ce
2d
e5
12
45
c2
27
c4
1a
09
14
03
2e
1f
1d
cb
ef
d4
28
d3
d7
45
ef
49
d3
ca
c7
f5
0d
14
ee
15
17
cc
27
cd
3a
06
d2
b6
f4
b8
cb
b6
0c
3d
14
0a
e1
42
3f
c4
cb
db
bf
da
1b
cf
cb
c0
2a
f1
f4
1d
c7
13
d6
e5
f9
2f
f6
e4
39
28
28
cb
ec
d1
0b
bc
d6
e5
fe
d4
38
fb
ff
f3
be
0f
e4
17
d0
e0
e2
21
da
cc
03
2c
dd
bd
29
25
02
01
3b
31
0f
11
0d
d3
cf
f8
4a
46
bc
2e
1b
46
f4
3c
c1
26
21
e7
c0
de
1a
42
f8
0d
1e
bd
d6
2e
1c
40
39
39
1e
37
33
d0
c6
24
c3
24
2c
4a
0e
ce
25
1d
c0
3c
e7
fc
3e
28
3c
31
2c
27
ce
b8
44
fb
f8
e3
29
44
39
12
cf
ee
eb
35
dd
1a
d3
05
b8
c9
da
fa
f3
eb
d9
3f
e9
b9
21
40
21
28
df
40
26
12
f5
cf
c1
0d
bd
43
bf
db
e5
d7
cd
d9
f6
d6
2f
04
f5
dc
cc
bc
00
15
da
e1
c8
d3
34
21
bb
41
23
ba
3c
d8
f9
e7
ba
1b
33
d6
ca
e3
36
42
00
30
27
df
cb
36
f7
19
10
db
d9
c3
1c
1f
fc
16
24
38
f9
1f
e5
c1
f8
ec
b7
c3
1e
10
18
cd
03
06
fb
07
26
35
03
b7
c0
3e
02
03
e2
03
46
02
37
f8
41
19
c0
38
e3
b7
c6
d4
01
18
e4
35
fa
de
3a
37
df
c3
e6
f3
c4
e1
e5
2b
dd
22
bf
40
03
37
43
1c
0f
3b
be
27
1c
c2
ba
cf
dc
1a
ee
d4
36
d2
2b
12
0e
f8
2b
e7
cf
ca
b8
34
d3
d8
cd
09
2f
b6
2b
2e
30
db
01
0e
f8
30
07
e1
e6
e9
26
1d
f1
f9
fd
03
d1
cd
f6
eb
d4
dc
1e
fd
bd
39
15
3c
ec
c8
0c
34
c8
e0
44
0c
e8
ca
23
b7
e7
33
24
10
cf
e9
03
f4
d3
24
f8
df
d6
d7
39
26
39
fe
4e
3d
15
be
c9
05
2d
24
cd
a7
02
c1
08
ba
ee
45
c2
f3
bb
0f
c3
10
d3
3e
d9
0f
fd
c7
fc
2b
e8
37
3a
19
bc
c2
08
3d
2e
03
17
f9
10
f1
34
b9
d9
e6
f0
c1
db
17
34
cb
cf
37
18
ed
e4
cc
04
0c
3b
dc
e2
43
e5
b8
b2
db
ff
e6
41
ff
32
fb
f6
e7
da
10
24
dd
fb
45
c5
38
44
48
1d
02
4b
dc
1b
d8
05
b6
de
39
c1
39
fc
d9
2c
ca
fe
2a
0a
d9
1c
ed
15
f2
4e
fa
27
1c
02
48
c6
05
f6
08
43
4a
06
26
d7
d8
f3
ba
f8
11
ff
1a
c9
b6
e1
bc
0b
fd
19
c4
cc
da
b9
20
f8
40
be
ba
fa
fc
c1
ee
3e
e9
ed
15
e0
b9
ce
2f
2a
ba
12
f0
07
39
f0
be
cf
28
2d
d2
c3
df
1e
33
1f
17
d1
fb
d3
1f
f5
c8
33
c4
34
3e
3e
31
2f
ea
f0
3d
23
f0
15
24
b9
c9
e6
e4
d5
e5
05
12
4d
1f
c9
e4
13
35
48
df
be
c2
13
06
1d
d6
f7
37
be
f2
0e
07
1d
1c
30
36
cc
ca
22
cd
f5
c9
c7
cf
c4
f4
eb
31
cd
08
fc
1e
06
ef
bb
bf
3d
07
bd
31
ba
2b
02
26
e4
12
24
48
2d
d4
23
e6
f6
26
39
ec
c8
2f
41
ee
31
10
45
08
f8
e8
d5
e9
b8
fd
d6
d2
20
dd
e7
be
19
f6
fb
4b
f3
f7
2c
e6
3e
e8
c2
ff
f8
13
04
40
06
f1
c1
c6
02
c4
06
37
d9
ff
23
ff
eb
1d
bb
e7
34
48
d0
cf
be
0f
cd
d8
38
dc
d6
c5
18
da
2a
e7
49
cf
d2
f2
e2
d0
c7
29
29
11
46
1c
1b
27
2f
ca
c6
c5
16
dd
25
d2
13
1e
fd
22
cd
fb
bb
c5
1e
3b
48
ea
39
45
d5
b8
dc
e0
fc
0c
e9
f4
fb
45
c8
fe
be
3b
c9
e8
17
ee
17
fd
f7
37
05
de
f3
db
f7
c1
ea
48
30
c6
20
f5
05
20
21
2e
08
10
f1
42
27
fd
0d
d4
f8
3d
2a
17
0e
d2
44
2b
ca
44
c5
f5
f1
26
46
cd
00
d7
c2
f1
0b
1f
db
ca
e3
ca
dd
21
15
3c
c5
14
f2
e8
26
42
c2
01
15
c8
3c
d7
b9
0c
3e
11
c3
36
db
02
1a
3f
c8
cd
f4
37
1c
d0
46
ea
29
c6
ef
4b
cb
f2
12
e8
f5
3e
db
d4
11
0d
3c
0d
ec
28
c6
e9
04
27
ef
e4
f6
13
db
21
27
c5
fb
ce
fd
f0
bf
f0
ce
fe
2b
cc
0d
c8
28
3d
16
3a
16
c2
f5
11
be
26
f6
f4
2c
f8
10
f0
f7
2c
fb
3c
0f
cf
45
f5
c3
40
b8
22
f7
ec
e1
ef
39
c9
e1
fb
41
ed
19
dc
1d
ed
c6
f1
ea
e1
16
d0
2f
20
45
0c
1f
c9
2d
42
07
c7
01
fd
cb
c5
39
cc
ec
32
bd
27
d4
31
c0
09
f1
ce
e5
28
0f
36
fa
ec
f7
33
43
cb
3c
00
d5
34
dc
ca
16
2d
29
13
e6
32
ef
e4
0f
00
0a
ea
2b
fb
08
22
47
ba
e9
35
cd
c5
df
f6
40
d8
cb
e8
0f
30
25
fc
27
45
04
c9
0c
08
d0
f5
f1
ed
2a
e3
1c
d7
30
0b
08
3c
08
db
d4
be
fb
ce
46
ed
f0
14
1d
0f
1c
42
36
2c
dc
3f
da
0a
05
0c
c7
ff
d2
06
22
3d
42
f5
3b
d1
29
d3
0a
cc
0a
09
3d
0c
cb
25
13
12
e3
dc
be
db
ba
0b
eb
04
14
fd
16
2c
32
1e
d5
e2
fb
be
3d
38
c3
c5
13
cf
07
30
ba
f5
ed
d3
cc
34
ff
04
04
20
1e
09
23
d2
e2
bb
45
f1
33
4b
de
1f
f3
b6
ed
07
2f
2d
01
cd
40
06
1e
26
30
e9
49
41
41
43
10
bb
da
41
c1
31
45
e6
1f
45
c8
f7
db
bf
d6
f2
d9
fd
f4
46
fc
18
c6
da
f1
44
fc
04
01
45
02
14
37
c5
b7
18
40
d6
cd
c5
fa
04
ef
06
4a
48
f4
dc
00
e7
27
32
fd
35
30
be
be
27
d1
30
3c
31
ee
03
c9
22
19
ba
ca
c8
18
17
35
b7
29
ed
cd
47
cd
d3
e4
18
f3
30
b9
12
2f
ca
b8
2c
03
12
ec
0c
c4
c0
1b
0d
33
c8
eb
3e
bc
be
d5
ee
18
c0
f9
18
0e
e1
e1
c1
b7
fc
47
c2
3b
48
fe
d0
c3
c4
e0
f1
3e
40
29
2b
d2
42
d3
c4
44
0d
c0
37
35
fe
c2
cd
2b
16
f6
c6
cf
21
20
11
d1
00
38
c4
3c
f5
43
3b
f8
0d
09
44
00
1c
3b
bd
0b
00
28
1b
d6
c5
3b
d1
ff
01
e5
b6
f5
c1
ed
25
2f
03
29
c1
1f
06
de
de
d2
c3
d9
e0
f2
f3
e6
d3
09
11
37
1e
c7
03
bf
25
48
c0
4c
d0
1b
45
cd
1b
0c
05
e5
02
46
f7
e4
38
d5
04
ec
31
cd
bb
fe
02
18
f2
eb
48
12
e6
ec
27
bd
c9
cf
b9
30
2a
2f
c6
1a
2b
c8
cb
3d
be
0c
48
f4
21
f9
f4
1b
06
f8
0f
1f
24
f9
17
f7
17
c6
1c
e7
1a
00
d3
2a
06
1d
27
d5
cf
ee
b8
3a
c0
d9
01
fb
fb
c9
17
06
f9
c7
35
d4
bb
e7
0e
1a
c0
43
3e
21
0c
13
bf
07
2d
cf
13
e8
e6
3e
cf
c9
c6
ba
0c
1d
47
41
d8
41
fe
b6
00
d2
11
fb
17
dd
b7
09
ef
2b
42
35
d6
00
d1
26
1a
09
e0
c3
f4
bc
c5
ee
cb
ee
48
ce
ef
d6
b9
0a
b7
48
c0
2f
c8
be
32
14
0d
1d
b6
18
bd
e4
f4
e7
24
33
fe
c5
eb
cd
f9
17
04
ba
fa
06
0a
ea
db
43
24
c8
33
c4
b9
ef
fe
bd
fa
2c
be
c5
3a
f4
ca
fd
e6
19
18
16
be
b8
cc
26
26
ec
30
46
1e
da
e6
d0
e9
e5
23
df
45
3b
dd
dd
2f
db
ef
0f
d8
23
01
cc
41
ea
d5
24
df
d9
f2
fa
0b
3a
08
c4
ec
c6
e5
de
c1
08
b7
07
e4
c1
f2
d4
e8
0d
0f
fc
34
3d
e3
c3
e7
1e
cb
fd
09
09
ed
42
27
44
de
20
dc
1c
3a
0b
30
2f
28
fe
15
c7
e7
ee
c3
df
06
f3
c1
25
d3
46
e9
13
e3
1e
d4
0b
31
fd
46
3d
f4
3e
2d
c9
26
bd
e9
c9
db
10
23
1f
c3
f1
49
00
fb
15
1d
d2
12
b8
bf
ee
eb
fc
c0
d8
b7
cf
df
f9
0a
be
be
c8
f4
08
c0
fe
48
13
e8
e4
4c
23
ba
2b
34
ea
1e
bc
13
25
c4
c8
ba
3f
02
2f
b9
f1
bf
eb
4c
0c
3f
be
37
dd
fa
ca
27
f0
14
34
cf
ee
29
0a
fa
0a
43
2f
d3
24
fe
ea
03
07
22
f1
1f
de
14
f1
44
30
d8
c9
43
c5
d4
f0
ba
e8
ee
f9
2f
0a
fb
04
23
31
cd
cd
0f
12
ed
f6
c8
1b
2c
11
20
42
eb
22
ff
14
bc
d4
d4
21
21
f7
dd
fd
3d
d0
e4
d4
b6
fb
38
c2
cc
3c
0a
dc
02
c9
23
34
ee
db
4a
3b
00
15
de
e5
ff
e2
18
02
e0
20
41
d9
d8
41
16
ed
07
3c
d6
03
bb
c6
2e
45
04
1e
1c
31
37
35
d1
48
ec
db
e2
f0
c7
40
bf
49
fb
16
0b
e4
c7
ec
37
f2
29
3f
40
da
f8
15
be
c1
da
10
16
0f
cd
0a
30
1a
f0
0e
f0
23
29
fd
07
b8
00
10
2a
f3
c6
0b
ca
13
da
1a
be
3e
34
26
41
10
2e
38
3b
be
b7
e0
34
3b
1d
43
33
28
3e
ed
1a
ee
ba
17
00
3e
d5
de
ea
1d
fb
c3
0e
34
ed
4a
d9
fa
0f
33
d2
f1
29
22
35
cc
41
3d
1c
d7
15
d8
d7
14
36
fb
09
39
3c
25
0e
18
0b
fe
10
f2
22
f5
d3
d3
de
de
c1
e4
36
34
48
cc
05
e8
3f
09
c3
1a
32
f6
0f
ea
2c
40
c6
d3
ba
e8
d1
3e
cc
42
fc
3f
e2
e2
c8
3b
0a
d9
34
32
e6
1f
db
cb
25
45
b7
47
0b
00
b6
da
2e
c9
bd
3e
b9
1b
e5
c0
c1
4a
16
43
2b
37
26
1d
d8
bf
bb
e8
2c
ee
c1
dc
d4
b9
16
ff
fa
d8
25
f8
eb
da
01
fc
dd
ea
05
ee
06
bb
bc
bd
f9
18
1d
e3
37
32
12
2d
d0
d0
c5
04
d1
08
c4
d5
1d
1b
34
d0
d6
f1
09
db
29
f6
cf
40
03
c5
08
ca
19
f1
37
39
c5
e5
28
02
d7
42
ef
d9
06
e3
22
eb
f4
bb
34
1f
41
d1
12
f4
37
2a
49
d8
dc
41
d5
3d
29
28
42
23
1d
21
e2
ec
f6
e5
cf
2c
2a
02
04
d9
bf
f4
2e
ed
46
06
db
36
27
da
2c
b7
d3
10
dd
00
ca
1b
00
fd
44
dc
cd
cc
00
d4
0e
37
46
07
fd
e0
d3
1c
be
d2
24
48
30
d7
16
08
42
ff
28
43
f7
00
c7
c3
c6
21
ce
e2
22
16
02
3c
e2
cd
3e
1a
32
e6
d0
01
49
3f
36
26
ef
2e
f7
3b
34
37
ec
fa
d3
e0
26
c6
33
03
f2
de
e2
f9
09
ea
ff
ce
e1
e0
e1
31
c7
00
e7
33
26
f2
c0
02
ee
ba
d5
1f
f4
33
dc
2f
2f
d0
2b
2b
be
1d
3f
2e
f1
b5
e6
3d
ea
21
40
1a
db
40
01
01
f5
25
d4
b5
c3
e3
b7
26
1a
44
35
48
ce
ec
0d
d7
4a
d4
11
c0
b9
fe
bc
2a
22
17
05
c9
d0
02
1d
27
f6
d0
f2
e4
dd
f3
cc
0b
e0
d9
d1
d6
c5
0f
c6
fa
fa
44
d0
eb
37
c0
43
f1
3e
1c
e1
00
0c
19
ea
14
35
c6
3b
d6
bb
c2
c4
01
09
fb
49
f2
10
32
c2
dc
19
33
01
c9
ec
3d
15
dc
0c
1f
cd
2e
2e
19
2f
ce
f5
14
cc
23
d7
38
bc
0e
46
30
ce
ce
37
ec
d6
c3
e4
de
d5
0e
11
34
38
b6
b6
34
d9
0f
20
3d
de
31
e6
31
09
d8
36
4b
1c
49
ee
46
16
45
c9
17
22
11
f7
37
2c
34
04
f7
b8
2f
2b
15
e9
fa
16
d3
3a
26
44
10
09
eb
16
27
03
e8
23
15
29
ed
e5
29
33
1d
0d
e2
30
fa
c2
b8
de
d6
c1
c9
e5
be
0b
cb
d7
28
bb
3f
37
42
ea
2d
12
3a
cf
23
2a
ef
ee
e1
1e
c7
33
45
c9
26
10
0d
06
cb
34
29
e8
1e
f5
00
43
c8
2c
33
f1
27
e3
1a
04
19
30
e3
ce
34
bc
bf
e3
c5
24
18
36
38
2e
11
2f
34
19
1c
29
15
d2
24
3f
ef
40
c4
3f
bd
01
d8
01
e1
b5
36
cd
16
12
22
0d
07
c9
be
0e
c9
f7
e1
08
c9
11
2d
f1
17
e8
3d
35
e0
bb
31
e5
e6
05
ef
2e
12
3c
31
11
49
1b
d8
12
eb
bc
b8
da
d4
c6
00
25
e2
c9
eb
26
c6
d4
bf
c1
08
49
35
da
2c
3d
db
2a
13
cd
11
2c
35
bd
22
18
dc
e4
3f
1c
e6
3a
e9
b9
cf
e4
0b
35
20
47
bd
e5
f7
f6
d5
2c
e2
0d
b8
3c
f5
04
24
e7
01
d0
ee
ff
dc
19
31
fc
43
f8
46
45
ba
ed
0d
09
0c
15
f3
29
1e
d6
c4
40
25
40
3f
10
22
e4
fd
35
da
12
c9
c5
3e
e9
25
08
11
21
41
b9
1f
38
f6
e4
12
e0
26
d9
1e
1a
30
10
1c
3d
fe
d9
e2
28
cc
fa
37
e0
27
1d
18
2b
d0
1b
d9
da
39
c2
f9
ed
dd
db
29
bd
0e
d2
16
fc
e2
12
e4
00
1a
cd
45
ea
08
46
e0
e3
f5
02
0f
d1
d1
db
01
0e
29
0d
fb
f4
47
25
f1
40
21
36
c1
0b
f5
c6
00
2b
fa
18
16
31
1d
de
bb
db
bd
c6
37
42
bc
bf
3b
db
e6
c0
3e
f0
17
43
d7
06
21
3a
e1
cd
cf
c4
43
15
16
f9
43
cd
37
35
24
48
fb
f0
32
2f
1c
e4
f4
08
3b
e0
49
c7
20
ff
bb
0c
30
3d
04
42
e1
14
45
13
d1
df
1b
fe
2e
39
f9
dc
c9
eb
cf
d0
c4
3f
ec
e1
19
e3
c8
34
42
bb
fd
bf
06
c7
db
ca
ea
ea
f4
44
f8
08
cd
dc
bc
e2
19
f0
29
3c
d1
3a
e7
42
c1
21
26
bd
b7
c8
de
bf
ea
dc
ef
06
f4
3f
0a
32
0a
c4
1f
30
21
f9
b7
bf
36
d5
31
d6
de
d2
ef
1a
f8
fb
31
bb
ed
d6
36
f0
e0
0f
c6
c3
00
19
37
3c
33
bb
fc
43
43
39
f1
17
c9
bc
e1
e6
3f
48
f6
f4
0b
ef
05
2c
1b
3d
c2
38
1c
01
f7
07
06
d3
bd
fb
39
cb
e0
12
c6
b3
fd
07
c6
fe
3e
fa
bc
1a
37
31
f8
3a
1a
cf
c5
fb
3d
bf
ed
e7
44
e4
29
2c
53
1a
0a
ee
07
c1
07
43
b8
31
26
07
3b
3b
af
d6
20
1b
29
d9
eb
c8
e5
33
d3
17
f4
31
ec
07
1a
d8
e8
34
b9
1b
d9
2b
44
eb
e4
02
4d
da
db
e5
3a
c1
db
b6
0a
ca
06
19
3b
14
ca
3f
bc
1d
1f
ea
f4
11
3a
f8
ca
47
41
b5
cb
44
52
dc
0d
2f
05
eb
07
ed
fa
c0
37
47
32
13
c3
19
de
e7
40
35
ce
be
b7
08
c4
c4
08
1a
eb
0b
40
0a
f9
d7
3a
f0
bf
e8
d5
3d
00
01
ff
25
bf
e4
e9
32
f1
d8
c5
29
38
0f
f7
bd
1c
bd
ff
22
dc
bc
d2
b8
1e
df
e3
c3
3a
32
e1
f6
04
f7
f5
d2
e8
07
13
d2
08
3e
27
ea
c0
02
1e
e0
21
23
c0
bd
36
20
42
21
ee
3d
d5
25
08
d7
ba
49
3d
dc
2d
f4
0e
15
ce
08
f3
1d
40
45
fe
ef
29
2c
08
0b
fa
12
f4
e0
fc
b7
43
d7
f7
06
3c
bf
f6
46
ea
e7
e6
e5
b5
c7
38
cd
28
44
ba
f5
ed
23
4b
f4
1a
08
13
3f
27
31
f6
26
da
fe
47
e8
ee
f7
cb
39
21
ca
d3
05
dc
bf
f5
19
d5
2e
db
d1
27
e7
be
d9
cc
3d
2c
27
25
32
40
31
ef
f2
49
32
21
d7
fa
c2
d4
f6
f6
50
d2
06
2d
38
e3
f2
3b
33
fe
e8
c1
c4
0b
fd
06
09
d8
0a
ea
20
f5
cc
f1
26
fe
37
d4
27
45
ff
f6
13
ce
46
cf
37
25
0f
f6
00
0b
1a
1b
e7
1a
ee
38
b7
40
3f
eb
db
43
43
40
e1
2b
3c
42
c7
e2
c0
dc
33
0e
fb
f4
0c
e5
35
d5
1d
c3
f6
ec
d8
c4
c8
d3
3d
e8
fc
c4
36
bb
16
39
07
48
0d
04
00
04
42
fc
43
cc
0c
20
0b
d0
b9
07
17
c5
c7
22
2b
16
d5
0f
37
1b
cd
2c
c3
46
36
e1
e8
b6
d8
37
0e
34
d7
de
1f
10
43
e1
27
c0
ed
ef
cf
26
46
0f
e6
1a
02
bf
d5
38
43
16
17
ea
3b
32
be
b9
45
49
d0
49
14
32
f8
cf
fb
f3
20
47
de
19
e6
0d
3a
0a
e3
d6
f1
c2
d8
49
00
48
f4
40
d2
da
39
41
11
ec
e3
3d
ba
43
da
2c
c1
fe
ea
29
ec
30
d9
fb
21
16
45
01
09
17
23
eb
c9
2c
f3
20
e8
e2
34
dd
19
28
d1
f9
19
c3
f0
dc
cd
05
ec
44
4b
ea
df
d0
fd
c9
c6
f7
ec
23
02
ea
1d
2e
f7
f1
10
05
32
48
28
1d
04
d1
d5
1a
1a
e4
d0
df
fa
05
23
0e
c1
c6
32
c0
20
fb
23
db
be
1e
fb
41
e1
c9
c4
3c
2c
df
0b
e5
39
d4
ef
f0
35
3b
4a
ce
cf
37
3c
f5
16
f2
db
f6
15
25
f3
d4
ce
29
23
45
2f
22
d2
37
04
fa
32
ca
41
05
2a
10
ec
1b
e1
2b
de
cd
d0
c2
cb
fc
cb
0a
b9
2b
30
f4
42
3f
c0
00
f3
20
31
24
31
25
1b
cd
c1
bd
3b
35
dd
d2
f7
c1
f0
d0
44
e1
d1
fa
b8
46
11
0a
0c
3b
cb
2f
0a
07
e4
0f
fa
d7
dd
0c
10
cb
fd
f5
cb
2f
c5
0f
c3
1c
cb
cb
f0
e9
07
ca
1e
b7
08
0a
1d
d8
f8
ba
20
2e
0e
01
23
00
4a
c6
dd
06
fa
24
32
e0
08
f3
48
e2
3a
31
be
d8
0e
2e
d1
cc
3a
41
35
46
cd
e3
2a
e4
09
38
2a
0a
00
f9
0b
08
48
f9
43
2a
fd
3c
04
03
2a
01
d9
14
c3
13
cd
3f
00
12
48
c7
14
fc
26
03
ba
37
25
20
b8
34
f4
28
39
2a
e9
26
31
04
fe
22
22
32
f4
0c
44
c7
df
cb
16
cc
c2
d8
26
3a
2f
1f
cd
30
c2
11
0e
fa
2b
d4
34
d4
17
26
48
d6
15
07
32
e7
ed
bd
bd
ee
00
18
07
f2
c0
3d
f3
dc
fe
25
e2
f7
ca
ce
3c
e1
e6
b9
35
1f
fd
bf
36
34
49
38
2a
2c
b9
e1
b7
c5
ba
d3
d8
d8
c3
0f
d4
11
f9
25
08
f8
28
cd
ea
05
0e
fe
14
bc
2e
37
17
ba
f4
c4
42
d5
36
f2
1c
22
38
00
01
f8
3c
09
f2
e2
36
23
1d
49
42
36
20
23
e5
41
c9
d3
25
07
05
ca
33
f8
e0
c3
c3
e5
10
e5
d4
fd
ec
d8
cd
fa
d8
1f
42
c8
c6
e5
21
f6
43
37
c0
ce
33
f9
0b
38
12
f9
c4
3b
06
19
c0
b7
d6
be
cd
fe
b8
48
ce
e4
d6
0d
e8
18
e3
36
c4
ed
e6
06
fd
1a
02
d3
d7
ca
33
1e
21
c9
1d
14
2e
00
ee
ed
e5
fb
38
e6
04
c4
39
cb
de
30
2b
00
0d
0e
fc
22
32
2d
bd
06
fa
39
26
3c
14
ec
42
07
d4
02
e1
ed
37
ba
cd
d8
39
0b
b9
d3
c2
2e
10
2a
25
d2
b9
3a
24
22
28
21
e4
da
c7
1b
be
ca
fd
44
fd
05
3f
cd
c3
27
d1
c6
44
f0
d5
32
bb
41
2e
14
40
bc
19
1b
e6
34
cc
b7
0a
c9
ca
1e
12
c9
2d
24
c4
e3
23
1e
0d
ee
c1
b8
c1
02
20
ec
04
2f
cc
35
02
c2
c6
ea
3b
cb
e5
3f
fa
f4
e6
20
c2
11
f3
2c
3a
3c
14
1c
46
35
28
1f
29
27
32
e4
be
dc
d4
41
c6
ea
17
e4
dc
29
45
22
ba
ea
da
e0
ee
0f
ce
f2
0c
19
06
22
3c
21
eb
0c
d5
21
e4
ee
25
30
dd
0f
11
1b
1e
b4
06
e0
ff
04
2c
42
41
22
04
cd
1c
27
c0
3f
26
cb
d7
ff
bf
cf
bb
cd
0a
b8
ff
2a
b9
10
3f
ec
d2
03
46
34
17
bd
ee
30
fc
38
f4
fe
eb
de
29
09
f5
2e
2f
d2
2f
db
38
fd
41
13
0e
3e
ec
08
c4
0f
ed
ca
e2
42
c3
40
2a
ba
ba
2b
e9
be
12
bc
f7
b9
45
e4
da
0e
c3
f9
45
22
d5
b9
d3
de
d2
1d
f2
35
24
bb
40
f0
2a
b6
32
0c
05
35
45
17
26
3b
51
17
b3
e0
47
4a
c9
26
1b
07
03
c0
bf
fc
57
eb
2c
bd
27
07
3a
5b
1f
e8
cc
26
16
36
f1
2d
ba
b6
33
1f
e4
4d
f6
1a
2b
05
d2
26
b1
3d
56
f8
e1
ec
14
39
b8
13
bb
d5
40
f1
24
22
d3
53
fe
3b
21
ef
f0
e0
ff
f0
45
c2
23
03
28
ed
f8
c6
12
ea
11
cb
fd
e4
5c
c5
b8
17
ce
d8
05
02
c0
c4
fd
e1
3b
24
ba
49
16
44
b8
12
dc
16
3b
fe
cb
16
3e
b3
ed
28
c8
0b
e6
d8
e6
1d
06
de
11
e5
be
ca
08
c7
c1
38
3d
e9
f0
e4
04
cb
fb
e0
c2
eb
c0
f8
fc
ec
25
cd
ea
0f
08
02
01
f4
ce
c5
33
b7
c6
cb
da
25
df
45
d3
d9
c6
38
fe
0f
e0
3e
18
e4
f0
38
39
16
c0
41
c7
d1
29
dc
d6
b7
b7
b6
49
43
e3
fb
d3
29
05
f5
bd
ed
3c
e4
3c
ff
1d
c9
e9
1e
40
d9
c3
47
24
47
1c
cf
2e
b7
f0
ef
d0
1b
13
f3
21
06
f6
c7
1a
cc
df
37
15
35
ca
c9
3d
2b
10
d3
13
fa
25
e7
45
05
15
f6
ce
0d
fe
f5
2c
c4
d7
26
c9
48
4c
19
c3
df
c2
ea
cf
40
d5
dd
22
45
ed
28
e2
1b
2c
06
17
cf
d2
06
0b
1b
1e
0a
37
3b
dd
07
bd
ff
1c
1c
be
13
17
00
1e
1b
de
05
ed
20
01
e0
06
df
fe
f1
ff
d2
eb
35
d2
30
16
ec
cf
41
01
01
11
cf
28
d6
3e
c4
09
dc
2e
07
c6
fa
eb
15
ca
2c
2a
d3
cc
d1
2b
0f
d8
17
1e
3c
0f
3e
ee
cb
12
fd
c2
00
fc
f2
20
36
dd
34
3f
0a
3c
cc
06
d0
cc
c4
30
07
1f
bc
13
d3
41
36
2c
f0
20
ed
46
c6
fa
c0
16
0e
e9
c0
18
3c
32
41
d6
f9
d1
d8
cd
0f
da
db
d7
0b
f7
c5
3b
fc
02
b9
ef
0e
0a
33
c4
e5
36
41
f0
dd
26
b9
13
f8
38
d0
40
cd
48
c0
00
44
26
fe
46
f1
1e
ee
0c
d9
48
ff
1e
dd
32
cb
33
ee
48
ef
25
be
cb
2e
27
34
c8
14
c4
e0
28
d7
f5
1d
d4
d3
02
e9
1e
01
0f
d8
03
f3
dd
47
d0
f8
16
cc
07
dc
c0
dc
2a
f5
4b
fa
47
06
dc
27
cd
f1
15
0b
22
ce
ed
e8
df
08
d0
41
31
08
2d
d8
16
41
cf
45
15
1f
c9
d4
1b
c0
3e
2e
06
3f
e3
22
c9
c6
f8
d3
b8
bb
46
2a
13
eb
d1
14
e0
bf
cb
bf
46
bd
ef
be
17
1f
f8
27
3e
f6
1a
16
20
cb
bc
43
0f
16
f3
f2
39
c1
ef
cf
47
c8
1b
cb
f9
32
05
0b
d2
10
d4
e0
cd
01
18
e1
c2
ed
e3
2e
10
c6
e1
c6
e6
e7
bb
2e
35
17
0c
fd
3d
c6
48
f4
37
24
02
d7
f1
2c
46
37
1d
dc
e8
f7
09
f6
41
fa
01
ca
d5
2a
e9
c9
c3
13
25
ff
11
ca
28
e7
14
bd
21
e9
1e
bb
2c
3f
e5
de
41
1d
1d
dc
ed
0a
cc
ea
18
1a
22
13
3c
e8
3d
3f
3a
cc
ec
2e
43
cb
e1
40
1b
02
f3
33
30
20
fb
49
e7
fe
d9
12
42
ce
46
b6
ea
31
20
3b
05
fc
48
ed
b6
08
24
19
c2
f5
de
3d
16
fa
12
48
11
14
31
17
ef
12
32
1a
3b
12
1b
3c
c5
28
1c
c8
f6
ec
41
ee
4c
42
06
dd
38
0b
dc
29
bc
2d
f8
fe
ec
1c
02
c1
15
de
24
31
3e
c6
ff
e2
15
f7
0f
ea
04
ea
d4
0a
ef
17
06
3a
3a
e4
38
2b
c6
41
e9
bb
39
de
c0
0e
48
f5
be
31
45
5a
fa
c8
c2
ea
3a
c2
1a
e8
24
cb
e4
30
31
06
1e
f6
08
b7
c2
e3
db
e5
e4
3c
d3
2e
5b
fb
c4
3b
11
dc
f5
e6
0a
f1
07
b2
25
e6
f0
dd
b8
0b
4c
eb
cf
1d
28
43
fb
47
04
14
05
11
3f
cd
be
f3
e4
15
b3
fb
c6
54
14
f6
f3
ef
fa
0c
10
db
11
18
e4
2e
ff
f3
57
55
06
3e
d3
e5
0e
3d
2f
fb
24
de
20
33
da
39
03
08
0c
db
bb
fa
2d
1b
f6
01
17
09
36
d9
e1
0a
d8
ea
af
ac
e0
0c
f5
28
05
d4
2a
f4
07
c5
c1
3f
1a
0e
47
3b
2d
be
37
f5
13
e5
2e
19
29
32
ca
f7
b8
f8
12
0d
0f
33
c9
c1
47
be
ea
18
2a
3f
30
bd
db
06
e9
eb
eb
e5
05
01
dd
f6
39
22
1b
4a
c6
ea
3f
f2
f4
2f
16
ca
43
08
ee
3f
3c
db
b7
fd
d2
2a
d1
ca
d6
fd
09
49
db
e0
49
45
34
48
ec
0b
1f
c7
29
df
e3
16
2e
be
e9
2b
c1
3a
14
f3
c4
3b
2c
e5
b7
21
c3
2d
fe
f1
f6
b8
be
01
f5
03
e6
cf
46
f8
e2
18
ef
f8
2b
d5
0f
ca
2a
d2
c0
b8
36
19
e6
44
3c
bf
b9
0a
d3
3d
e6
bc
d0
3a
df
d8
29
1e
03
cf
ca
c4
42
3b
3d
33
13
bf
db
2e
f2
ea
fb
4a
07
c7
3b
22
20
35
dc
be
43
37
10
01
de
3a
ed
ee
ef
15
d5
cf
0f
bc
ce
ef
d0
0b
15
ed
29
bc
36
f8
15
ea
1a
49
06
b9
39
f8
30
43
2d
21
c8
cd
cf
0e
f4
42
f7
2f
f6
0f
d1
f5
26
03
e5
2c
fe
1c
30
c4
f7
ed
f3
2a
0a
08
14
d3
fd
0d
fc
48
d1
e1
37
ce
21
cf
d4
4a
21
e6
f1
fb
16
38
3d
c1
fd
2e
00
3c
27
09
ce
0a
12
00
f6
29
e8
1f
22
f5
29
ef
02
1a
e0
3b
d7
28
dc
27
0e
41
e8
be
42
42
01
c7
24
14
20
3d
f6
33
1d
e6
1e
2e
c7
fa
49
e6
21
e5
2a
2d
e7
be
ba
dc
e0
bd
37
dc
c2
d4
d5
f0
30
e2
11
d8
3b
bc
de
24
e6
d2
35
ef
e0
b4
ed
22
f9
28
ca
1e
c1
ba
38
2b
e9
13
dc
05
cf
d7
c7
49
0c
fe
c5
e9
e8
fa
de
2c
dc
b9
4a
f4
12
bf
23
0f
06
25
d0
bf
c4
2b
da
47
bf
07
3c
28
32
17
d4
1b
ee
d4
ec
32
dc
e7
da
c6
fd
d8
0a
18
3b
f7
21
2a
f1
1b
32
f2
e5
2c
e9
b8
f7
2b
ba
04
08
e5
fd
3d
35
e0
29
2d
f7
f5
12
17
2e
e6
ec
09
d8
2e
bc
bf
ec
11
0d
bd
f5
10
14
e7
c1
f5
02
1f
f9
e7
e3
01
c6
1f
3a
d2
1e
03
fd
c6
e5
28
41
eb
09
db
3b
e5
fa
3c
d8
f4
c6
fc
d4
e3
c8
0f
fe
18
e2
36
32
43
dc
b4
d6
c9
e5
40
bc
2c
2d
30
0d
35
22
44
f8
f8
fe
1b
ff
c8
45
ca
e7
b5
14
c8
fe
0c
f4
28
03
bd
cc
14
dd
47
e9
09
3b
2c
cd
f6
e5
e1
42
b8
48
49
cf
2a
da
f9
cd
0f
d1
ec
fe
c8
32
eb
e4
06
3d
e1
e2
3c
ec
40
e8
ff
fb
bc
f1
e6
2a
0a
dd
e1
02
f8
2c
f6
06
f5
e8
0d
3e
cf
e5
19
01
f1
ba
ce
d3
09
ec
17
fb
f1
d7
4a
33
0b
18
3b
03
43
04
32
4a
c7
c1
07
29
2c
de
45
e9
f8
da
e6
e5
cf
ec
ee
f4
da
47
35
fa
0a
3a
eb
03
3a
d7
d9
ea
d3
d4
3c
09
c5
db
b8
31
b7
2d
f5
42
c7
db
e0
18
3c
41
23
c6
d7
fd
ca
36
f6
b5
2e
c7
46
e3
c8
bb
37
01
14
2a
c6
34
d5
49
d6
d5
d1
15
f4
43
b7
49
3d
1c
ee
ed
41
15
fa
b9
cd
f5
c7
fa
00
21
33
cb
d3
3e
ca
22
05
14
d2
d8
eb
02
34
f0
0b
de
19
ca
16
14
f3
24
bf
cd
cc
f4
e7
e6
b8
23
c1
38
26
37
d6
d2
33
f1
d8
3d
dc
bf
e6
2c
f3
24
2e
fb
34
26
fd
f9
12
3f
11
0e
17
33
17
43
08
d7
29
39
1d
3e
dc
e2
eb
fe
37
46
14
bf
ee
d2
20
25
ed
01
d3
27
0f
35
fa
ba
1d
00
d0
3b
b9
b7
39
d7
54
c9
14
08
2a
c7
5d
cd
31
fc
bb
ee
bb
02
d9
1b
d8
34
0c
27
4e
da
c3
24
3f
c8
f8
31
34
24
5f
0d
09
f1
df
3a
c9
c3
59
f5
d7
48
1d
1b
0a
d3
05
26
3a
ba
15
f3
b4
25
27
67
fa
39
43
d6
3c
d8
02
3a
e8
35
db
14
e2
de
e6
ce
ce
43
f0
3c
db
35
b6
44
5f
15
ba
d1
2d
40
e2
36
57
2e
ed
44
f2
1d
0e
01
4a
5b
00
3a
c9
f3
f3
3c
ff
fb
13
cf
30
31
04
22
e4
d1
3e
f9
10
31
14
ed
fb
29
37
d1
e7
d9
e3
d2
19
ba
2e
bd
38
3e
f7
29
cc
1c
06
d7
11
ef
27
0e
ce
e6
16
f5
1c
e4
24
e6
dd
c5
31
f3
2b
15
28
d7
3e
51
bf
40
fe
46
10
48
08
17
2e
04
c7
3b
e0
3f
e0
cd
d6
ce
c3
fa
27
3c
e5
16
49
ec
23
2c
d5
c6
fb
fd
21
bb
36
fb
f7
3c
f7
2b
bb
f8
0a
bd
3c
e6
f8
44
db
2e
26
d4
c0
f9
4c
d6
cd
31
fe
d8
e8
45
45
04
03
01
df
d8
38
bd
d5
e4
48
c0
5a
33
1d
17
e9
0e
f0
ea
50
cf
43
e8
cc
fb
28
c9
ee
3f
14
e4
c7
33
23
30
0b
31
c9
41
b7
2e
cf
ea
01
07
f8
f1
d0
0e
fc
3b
ef
26
c7
10
d0
0f
ff
33
2a
4b
cc
e8
e0
bc
f0
4f
28
c0
ec
19
fd
39
19
45
2d
0f
d1
e7
46
d9
22
42
47
35
c1
4c
05
19
0c
18
06
b6
c0
ef
01
f8
cf
27
d5
e2
f8
1e
1e
04
2e
0e
51
0a
1d
29
f7
ec
31
cd
03
11
c8
20
2d
3c
31
09
dc
1c
35
37
02
cd
ce
c0
2e
ff
0e
47
1c
c8
d8
d5
28
d7
3e
cb
ed
da
41
e0
09
bf
23
1f
07
fc
44
e7
47
e0
d6
1a
35
db
f8
ed
3a
2c
bf
41
cc
04
c7
10
11
45
cd
e1
d9
ff
12
bf
04
e6
2a
c9
44
fb
0d
48
f6
c9
0c
d3
34
e1
25
2c
da
e3
04
34
0c
42
e0
10
2a
16
47
25
d7
ca
4b
e5
44
df
18
46
e4
0d
d2
27
f9
3e
36
32
bd
e9
1d
f2
ee
25
dd
db
2e
d6
f5
2a
c1
3f
f4
36
20
39
3d
dd
d0
c5
3c
22
c1
40
b8
e8
10
12
0d
fd
fc
28
e3
1f
29
fe
ff
dc
0c
ee
e5
f4
b6
42
43
34
42
21
f9
fd
26
e5
e4
e6
40
06
e8
31
e9
e8
fa
1e
2f
1c
ca
fc
3b
e4
df
f8
22
0b
d6
d3
21
d5
06
18
30
ec
2f
ee
1f
21
3a
bc
2c
fb
eb
40
3a
df
f9
cd
dd
31
21
20
bb
39
d4
e7
19
12
da
21
27
ef
0a
40
09
c2
18
bd
db
d7
d5
be
02
1d
cd
42
fb
2a
1b
0a
b9
fb
08
38
14
ed
42
d6
1f
3b
e3
1f
3b
02
0b
45
f1
2e
00
25
d8
26
e8
d4
17
1f
cb
dc
09
1d
32
cf
d0
45
b8
ff
bc
16
15
b5
2b
ce
49
1a
47
dd
e9
d9
14
3b
07
ef
c2
c5
d6
3c
e0
13
cc
e6
16
0c
37
fe
dc
4a
c1
bc
d2
f6
cc
19
47
b5
44
2a
fd
0d
f1
15
35
db
02
07
c9
19
1e
ec
c6
29
c9
d5
f7
10
c5
30
36
1f
38
f1
ed
49
45
21
c5
2b
2c
e9
ce
b7
02
ee
fd
e0
d0
d1
f7
1f
ee
d0
25
da
19
24
fa
1d
b9
f9
f7
bb
eb
05
d2
e6
02
c5
e2
f6
15
ba
ee
24
08
44
37
28
1f
dd
ec
21
cc
eb
21
0d
ba
e6
3a
16
31
13
d2
e2
22
c4
e3
bb
40
dc
d7
0b
df
26
cf
10
03
c4
d9
21
0b
13
49
d7
2f
14
0b
fb
fa
bf
26
18
15
bd
30
da
1e
0b
ef
25
17
b8
e1
fe
23
b9
24
08
ed
1e
06
cb
e4
e6
38
37
23
e3
21
dc
d4
cc
05
45
26
2f
3a
fb
1f
ef
d6
b7
0e
b8
e4
fd
be
0d
11
03
4d
2c
eb
45
09
46
1e
de
1c
cd
06
19
d2
0e
05
d3
2b
bb
32
3a
d1
b8
fe
3b
f6
fc
22
f0
e7
f1
ca
ee
28
05
1c
e4
be
41
fb
2a
19
d1
d3
c1
c2
fc
ff
f0
e6
3f
0b
cc
cf
32
f6
03
03
ba
38
cf
13
fd
cc
43
c5
de
d4
2f
d0
1b
19
e7
28
e4
24
f0
d0
c3
dc
13
b8
e6
c4
e9
48
0a
b7
e5
ea
d6
2f
c3
42
33
d5
34
f5
f2
2d
0c
e3
ce
32
31
e0
c5
d2
cd
c6
e5
11
d1
eb
3d
b8
44
ca
1d
d0
e9
fd
d3
d7
42
40
bf
bc
2f
bf
3c
1e
dc
cf
41
11
1c
d7
06
21
3f
4a
16
e3
f1
35
d4
eb
28
2f
31
e5
da
1c
0b
14
09
b9
d5
ec
31
46
ee
0d
b9
15
41
bb
1a
f1
c2
36
ba
39
46
e9
ce
0c
e4
25
0a
fc
46
20
27
d5
00
01
d8
2f
bd
1c
d6
fe
39
3a
b8
e5
41
ed
3a
29
36
45
09
38
08
1c
17
cf
06
0d
05
d2
26
dc
04
0b
04
c1
ef
d5
08
ba
fb
ba
bc
05
e7
eb
26
15
2c
40
e3
ce
1d
d2
2b
be
23
dd
ef
05
e0
e6
02
26
43
34
df
c7
e3
f0
19
f3
da
ef
42
ff
12
e7
03
37
c7
37
f1
ca
e4
e9
02
16
fb
be
1b
45
1c
d3
19
db
d1
13
bf
e0
cf
ff
1a
eb
dc
d8
0d
2d
ed
cc
cb
21
f4
f5
41
d3
e8
fd
22
18
42
e8
02
dd
0c
e9
db
39
28
3b
c5
16
22
13
17
40
f6
d1
ba
e0
f8
44
34
da
fb
1d
2d
dd
06
cd
0d
df
e4
00
e5
d2
16
ba
01
fc
f5
00
fe
bc
09
c1
db
dc
0d
01
08
eb
bc
c6
e8
fa
cc
3f
b8
1c
32
f8
f7
f6
13
cd
31
30
f1
11
cf
26
22
c8
e2
be
f7
3a
44
40
df
d1
d6
15
f3
d9
e3
39
36
1f
15
cf
37
32
d5
d5
df
1a
2a
18
c1
b4
fb
32
f0
32
45
21
2c
b6
43
40
e6
c9
2d
15
dd
ef
db
ea
09
43
e6
fb
cf
39
3c
0a
f8
c8
f5
1b
38
d4
c5
d5
44
48
0e
ed
f4
45
d2
db
cf
02
b8
be
29
eb
dd
eb
2b
30
46
38
bd
e0
f5
b8
e7
f4
21
e9
07
00
dd
e8
13
30
38
bc
3b
12
d9
ea
05
cf
28
00
04
18
48
28
c3
ee
e1
41
e4
00
37
e9
c1
f6
cb
29
ca
e2
d6
e2
09
27
be
02
3f
00
0d
1e
c5
f0
23
08
f4
47
12
47
f7
0a
da
f4
3c
2d
3e
38
01
1e
40
bd
df
be
20
31
0a
2e
1f
ba
ff
31
23
2a
0c
c0
c7
d9
33
db
d0
dd
1a
1d
e0
c2
43
f4
ce
09
b8
3e
09
1a
29
0d
ed
1c
de
d5
23
34
f6
24
14
37
eb
db
c6
2a
df
0e
31
cc
47
d0
1d
27
fe
2f
ef
f8
27
39
3c
31
2f
13
2a
4b
26
d1
1b
3c
06
05
38
d8
c7
d6
0c
e8
d5
f7
f3
2f
04
1e
02
41
35
2b
13
ee
02
f2
2e
cf
e0
0d
3d
e4
f6
17
41
f0
38
1c
c9
46
e7
22
07
d4
3f
34
29
fb
04
d1
39
0a
29
47
3b
1d
c3
01
fb
bc
bd
3e
fb
09
26
c9
cf
3e
00
2b
0f
d3
ea
35
36
0d
0a
05
11
d3
1a
13
31
29
32
ce
f9
2d
f1
da
ee
c9
37
b8
2e
3c
1c
f6
cc
06
f5
1a
b9
f3
48
f7
2c
2e
1b
2e
26
ee
38
29
b4
35
42
bd
20
d1
26
c0
c8
ba
3a
15
b2
2b
ee
d7
d8
fb
18
1f
d4
2a
f8
2d
08
b8
08
2e
f9
c9
e5
d0
ec
0e
30
e6
11
b3
17
42
18
3b
49
c0
d2
c0
0d
42
c9
b8
02
ee
b8
e7
02
c5
36
4d
18
2f
21
fe
20
13
bf
1e
b2
15
08
4a
c8
05
34
2c
eb
09
e9
ce
34
44
c1
24
1f
d7
3e
24
27
bb
e1
1f
1a
2e
1d
29
15
19
09
1b
11
10
ce
b9
0c
d1
3a
05
0b
10
26
0e
17
db
17
db
3d
c4
36
2a
45
c8
f3
1e
0e
2c
0e
bf
2b
09
c7
f3
c0
25
bb
eb
26
0b
ef
39
19
c4
38
ca
3c
eb
48
3e
c5
05
c9
cf
cd
c5
bc
d5
f5
da
23
16
21
cc
2f
be
ba
d9
34
dd
02
c3
32
ce
22
d4
f7
1a
3c
ca
20
3d
2c
d6
be
11
29
10
3f
c3
05
be
2c
26
08
19
2e
e8
f5
1b
26
18
26
20
eb
c9
15
1f
c9
23
ba
2f
fd
bc
d8
dd
18
02
1a
c1
fe
08
11
13
c8
13
11
24
bf
bb
d1
f8
10
bd
e4
03
e2
e8
f0
27
3e
32
07
3d
28
3f
1c
da
28
c1
c7
0e
25
1b
2c
19
fe
17
2f
14
cf
d5
08
3a
42
53
e5
32
d4
15
26
08
12
23
06
0c
2f
d1
49
bb
2b
01
10
0d
bd
f4
61
08
35
1a
1d
20
2a
5d
c9
cb
ed
2c
ed
d5
1b
16
cc
e0
ce
b5
22
e6
c5
0a
26
c8
27
f7
ff
1d
3a
ce
60
40
fb
ca
23
35
e1
d2
39
e7
28
e4
3b
49
09
32
34
fd
12
42
10
c0
cf
04
38
38
4b
0e
3b
32
b1
08
da
dd
40
0b
d7
b7
03
15
0e
32
37
fb
32
47
33
b8
c0
e1
b8
58
39
bd
d0
36
de
07
d6
33
dc
63
2b
e9
35
0e
dc
43
f2
1f
37
1f
c1
f8
b7
c5
33
19
c9
13
bd
24
10
cd
c4
39
45
24
bc
e3
f9
08
27
0f
e5
f1
c2
d1
cd
c7
04
e6
da
cd
be
06
20
28
1d
b5
3e
e9
da
21
26
d5
1a
34
26
47
02
0b
c9
dc
d4
36
30
e9
24
0f
e9
c7
c9
f6
e6
e0
ea
3f
e0
2a
f6
c2
f2
be
c1
b5
43
b8
f0
c6
08
0c
3a
1e
20
bd
1d
f8
bd
f4
1c
c6
c8
fb
c3
46
e9
f8
e4
c6
fa
05
bd
33
46
ec
40
ef
f6
ef
04
32
f7
fb
b9
11
42
45
39
e7
2e
3f
28
e0
bc
f0
1c
47
fe
bc
1a
1f
b8
bb
f0
26
e3
f9
4a
ba
cb
2c
2d
20
30
ce
b8
39
e2
e4
09
ee
d2
1b
d6
3a
cf
ea
3e
09
f2
04
1d
d8
15
d8
d7
fb
f7
e4
19
e4
fd
bb
09
0b
ca
cc
d2
c2
fb
fb
42
e3
27
fc
18
b9
41
19
1c
3c
35
f0
32
bc
33
e2
e9
3a
b8
1a
3c
3d
d1
0d
04
39
c2
32
b7
18
21
d7
bd
c8
be
10
e1
ca
24
d6
dd
cd
fc
cf
12
3a
45
c4
fa
ef
fe
ce
2d
2c
2c
28
c1
cc
3f
1d
40
e4
28
c8
cd
09
3a
30
17
15
28
27
b7
cc
2c
be
1f
e2
10
f3
bd
1a
14
ff
bc
46
13
0d
14
2a
19
f8
b9
00
05
ca
44
c6
23
ec
40
df
52
03
d7
bb
f4
3a
38
d7
bd
e3
2a
cb
35
ef
29
29
fe
cd
e1
0e
16
44
44
ba
cb
f0
d0
dc
cc
c3
2e
f4
17
1e
17
ef
2f
c4
0e
f7
27
28
e4
fe
2e
df
34
f3
15
1a
28
04
f7
c3
c8
02
f0
13
2f
df
30
1d
c0
20
20
0b
17
2c
3f
2f
05
01
01
20
c8
2e
0b
31
04
f0
41
22
e5
34
df
d4
09
12
ff
2b
d9
3f
1c
ea
17
e3
00
db
f5
05
08
ce
22
f6
15
09
be
2a
eb
ca
d6
12
21
00
45
20
b8
0a
17
d4
fa
f6
e8
45
d3
1f
27
07
cc
c8
bc
dd
ce
46
d7
10
de
2c
49
19
41
b6
d7
0f
35
df
24
2c
0d
1d
bd
b7
d3
f8
d5
da
fb
0b
2b
c2
ce
32
d2
3d
e2
f4
23
dc
ce
3f
f2
3a
d0
12
e5
de
25
e9
35
05
15
35
f9
f9
c4
38
12
25
ed
b7
bc
0a
bf
e7
26
39
3b
f0
01
d9
37
19
17
04
e8
0d
db
34
30
0b
16
1f
1f
1d
d8
ef
13
cf
c9
c0
0d
b7
4a
46
f8
11
31
03
e3
1e
e7
c7
11
df
42
c7
24
0d
06
f9
1a
42
1f
d6
c4
0e
fc
cc
17
1b
d1
19
f9
d5
19
b7
2a
0f
b7
27
18
22
25
1a
40
1e
45
f3
21
13
fb
dc
cd
39
07
0b
fc
c9
e8
b6
29
dc
c8
de
e5
f9
30
01
33
d9
0c
2a
f3
34
c7
bf
3f
3c
d8
c6
0a
ec
c2
00
09
e0
40
05
46
d2
cc
f3
bd
39
44
b9
e6
1e
07
fc
f8
1b
3c
44
c5
18
b7
e8
38
03
f3
49
2d
e1
41
0f
f2
49
48
31
df
42
d7
41
26
38
25
c9
02
f1
40
44
0f
b9
18
0f
3c
26
02
2e
1d
e7
1c
33
3b
38
18
1f
c0
bb
d2
f7
e7
f4
be
f5
cc
2f
ea
dd
26
39
de
dc
c2
f6
3d
f6
d6
3c
28
18
ba
f2
e7
05
ee
35
f9
13
c7
ce
d5
cb
ef
19
1f
07
2f
bd
1a
d9
cd
20
02
15
c3
48
c2
ce
1a
de
ec
22
d4
19
3d
3e
08
42
ce
c1
27
34
08
e3
fc
dc
47
31
19
e0
06
d6
2d
1c
1c
27
4a
b9
ed
ba
bd
dd
ed
e8
ec
f5
e0
27
0b
ed
34
3d
44
da
df
df
0d
c7
15
d6
40
37
e7
3c
0f
40
f1
3f
24
b8
06
13
16
3d
46
12
24
d4
29
fa
d6
e6
f0
d5
25
cd
c2
cf
3f
0b
44
f6
3a
12
43
cf
30
cb
e5
bc
c2
21
19
1b
30
20
ce
ec
eb
20
33
0e
f3
e2
26
bb
0a
c9
4d
dc
00
15
1d
cd
2a
cf
35
d1
ee
c9
c2
ed
c8
ca
e5
36
0d
22
29
1a
ec
0b
3c
d0
dd
0d
ed
c2
10
41
ca
c2
00
28
46
f1
09
c2
05
3b
f3
05
14
09
ef
3b
ca
db
03
f5
f0
43
bf
2f
01
19
ef
3d
d4
11
ba
ff
fd
fc
1b
1c
16
26
1d
db
3e
e3
c6
34
dd
34
de
f7
e4
2e
23
38
e4
2e
45
32
46
40
1a
ec
d9
3b
cb
1a
2b
dd
bc
b6
f5
b7
ff
3b
bd
d6
45
0a
08
f2
be
2d
cd
03
e5
d1
fa
d6
c1
d0
e9
d7
e8
43
23
be
d3
06
42
c0
06
ba
e9
41
2c
ef
d8
02
ff
2a
dd
e4
01
1d
da
47
3b
cb
23
e3
10
d9
43
16
33
09
39
11
f9
3b
3c
41
d9
1d
12
d3
2e
ff
cb
19
bb
0d
36
1d
dd
b8
29
ca
05
29
23
cf
3f
17
d1
d1
b7
20
d9
33
b7
de
47
1a
04
38
01
fb
14
c7
20
14
e0
38
df
c8
39
e0
15
e0
0e
e8
e5
f2
13
f7
b1
32
cc
e4
f9
36
2f
f2
d3
1b
cf
e5
2d
26
c3
e4
e0
3b
db
19
b6
43
4a
b6
bc
de
d9
3c
f7
ed
d5
0f
32
40
2d
b4
f7
f7
da
fd
22
06
dc
d9
fd
ec
d3
47
bc
be
d3
c2
06
43
28
fc
d1
d6
d5
db
b9
40
2c
c1
f2
f5
1f
d9
4a
f5
bc
0f
d5
04
3a
21
d8
07
2a
09
19
37
f7
b7
bf
f9
18
dd
27
17
d5
1d
2c
f3
c1
23
cf
3c
bc
cd
02
cb
3e
04
c7
c2
37
00
21
15
e5
fa
04
49
fc
d0
fa
22
f1
02
f3
2b
bd
c9
25
d8
36
ea
ca
19
c5
3f
e4
b7
2f
0b
1f
35
f0
2a
04
f6
fe
34
f3
1f
21
37
39
49
d0
b9
31
d7
13
25
4b
2e
04
fe
ec
19
e3
fd
c3
f2
48
ef
f6
42
f7
b9
c6
0f
e8
fb
bc
db
d2
fa
ea
1c
f4
07
48
1a
46
1b
0c
bf
bf
e8
c8
19
23
e5
07
fc
1b
f7
08
29
30
dd
c9
d4
d1
27
39
f1
d6
d5
37
2b
d0
19
3a
d6
36
2c
02
e2
48
e8
de
3f
30
37
f2
f4
34
f6
3f
0f
37
03
d7
26
36
0e
03
e4
f5
03
3a
00
16
21
cb
3e
03
e9
e0
bd
11
c6
e0
c2
bf
3a
23
f2
bd
1c
ca
f1
c8
bb
4a
de
ea
1f
c7
2d
01
f4
4a
0f
ba
02
c1
ef
26
fa
23
3b
c0
08
26
ba
d3
3f
14
1f
49
1d
49
0e
2a
25
f8
ef
bb
3e
cd
47
1e
2a
34
0a
45
cb
e1
3e
41
39
f7
cf
08
3d
21
21
dd
da
15
ec
03
d0
d6
c0
42
ed
48
b7
f2
df
05
2d
44
01
d5
1b
ff
cc
0f
e8
0b
c4
48
fd
03
1d
22
eb
c8
e2
33
eb
f1
bb
e3
c7
18
cb
2d
d7
24
3a
0d
e0
47
2d
08
ef
0b
3d
3d
1e
07
ea
c6
ca
fa
46
3e
0d
31
e2
c8
37
2c
fa
d6
24
bf
23
2c
0e
1c
e4
25
e3
25
e3
19
e9
02
f6
0b
2b
31
f8
ce
e0
c7
e6
d0
f2
3c
bf
c4
cb
fc
49
12
c2
c0
c6
e7
0b
d1
13
00
c4
dc
c8
db
42
3d
ce
f4
ba
44
1f
c5
0a
c2
e5
c2
37
27
ca
1c
17
d7
40
fc
c6
41
0d
e9
07
be
00
da
3e
44
de
15
24
46
d7
cb
d3
3f
dd
d2
ce
23
03
da
09
f2
10
fd
db
d8
dd
3f
dc
ea
1e
12
1a
f8
d9
cf
1f
e5
49
45
15
f9
34
d3
f9
34
f1
47
bf
10
de
06
07
3a
08
bd
dc
c4
ba
37
42
be
d9
d3
c1
05
d5
e7
dd
0c
3b
20
f9
47
c9
ff
f3
1d
18
c6
c4
d5
39
f0
ee
36
df
ee
0d
3d
22
28
2b
38
f2
cf
36
1f
ce
14
ba
3d
ff
f3
2b
b7
c7
b6
45
c8
3f
1f
30
18
17
33
12
10
06
ef
04
e5
2f
d4
11
28
39
c0
e1
c1
ee
e8
00
fb
05
bd
0c
e1
1d
b9
c5
f4
0c
0d
b6
dd
3c
47
f3
c3
f9
31
19
26
bc
1f
fe
1e
21
c7
b9
38
c6
fe
40
f3
b9
08
3a
ff
1a
e1
46
0b
ed
0a
16
22
bf
fa
13
34
c3
d9
35
c1
43
e6
e5
42
2a
ec
3e
2d
44
1f
2e
cb
ce
2a
16
be
01
2c
43
2a
14
27
da
29
14
0b
e4
35
3c
29
ea
2d
ea
35
e3
18
fe
30
b8
00
35
e6
24
06
e1
3c
dc
36
00
de
ca
20
c0
0c
07
47
f9
2c
0e
26
2d
df
cf
dd
da
db
d5
c5
18
f4
f4
17
43
1d
f7
d3
de
c6
e5
e7
c5
d0
b9
f9
3a
df
f6
14
c6
f1
06
c8
28
2d
d4
fb
29
0d
b7
f5
de
11
01
07
d1
cf
2d
b7
1e
05
fb
44
3e
df
da
4a
23
31
1c
cf
bb
48
fa
14
c6
fd
e1
f6
e3
fb
ff
48
bb
1a
09
f8
df
46
e0
27
dc
e6
2a
c5
c4
c3
f9
33
28
e3
f7
35
ee
f3
1d
06
43
44
f6
e2
14
d1
3c
bb
c3
01
ca
fa
28
1f
d6
2a
28
ce
e7
0c
c8
46
18
ff
e6
0c
e4
c4
1e
fa
20
dc
f5
db
24
ce
29
d0
20
18
c4
19
eb
1c
48
0d
ea
3e
d8
44
01
ef
fb
0c
cc
14
05
38
12
d3
3f
c0
e9
fa
10
32
f0
11
36
03
f4
f5
f7
37
ca
fa
b9
43
cb
ea
d3
0f
c4
c1
39
be
c0
42
06
39
35
b7
01
cb
fc
f1
20
08
0f
d5
20
41
d1
37
00
fc
f2
f4
46
c5
10
4a
18
d0
04
40
2d
28
d5
f4
f2
e0
f0
ed
f2
0c
e0
2d
db
0e
0a
39
3e
c7
2b
43
d2
d4
07
b9
09
12
02
bf
23
f8
f0
05
f2
fd
46
08
da
cc
41
0c
c4
24
ca
12
db
2f
fe
d6
ca
19
41
ff
c1
cf
09
e6
d1
e1
ca
08
cb
dc
fa
bb
15
fd
34
18
d4
e0
ec
cb
03
2b
13
35
2a
2a
d7
e8
15
03
22
df
cf
11
e5
eb
e7
fd
ca
36
df
4c
47
32
e5
d0
cb
cf
c8
c8
e8
be
44
13
41
3f
31
42
18
06
02
f7
20
3b
37
d3
26
fa
cb
0d
de
d7
27
de
43
bc
db
4b
47
da
25
fa
b8
c8
b8
ec
e7
12
cc
10
32
1b
2a
f2
c0
ed
ba
3b
0b
e4
2b
1d
fe
f0
b9
12
04
45
d0
07
c7
18
d1
f8
df
ed
19
c0
d2
f5
e0
0c
fc
15
30
c5
b6
24
35
d6
ea
0f
2c
31
3d
48
cc
f9
f6
09
15
18
16
dc
e6
cb
1d
bf
15
33
de
23
fe
cb
19
35
e1
42
11
29
2d
3b
f4
1d
d7
e8
24
13
e4
1b
31
46
05
d4
fb
4a
b7
11
2a
de
33
fa
ff
cc
09
df
e3
e5
f9
b7
b5
ce
20
0c
01
ea
32
38
e0
2d
e5
0b
3d
1e
27
db
26
da
e3
f0
cf
bd
18
40
15
d8
c5
e6
1e
19
b8
dd
dd
40
db
1a
e2
d3
0d
2d
c6
f9
e2
23
fa
e1
0a
c9
ef
12
2d
e3
4b
41
0f
d7
32
f8
43
08
08
35
d4
3a
d1
33
40
43
cc
3d
47
29
d7
e0
e1
10
42
29
17
17
da
fb
28
d5
47
22
07
cb
0a
bc
fa
28
02
23
fb
27
ce
48
db
05
34
3c
c6
c3
d6
32
01
d4
38
2b
df
ee
bd
d5
2b
0e
1d
17
e3
bf
3d
0d
f6
36
2a
d5
ba
38
f7
b6
ed
e7
44
19
12
03
d1
ce
cb
ff
26
d4
18
1d
e6
44
3c
10
f7
ef
d0
32
c3
46
1f
c7
d7
46
43
1e
c3
b9
e9
e1
f3
bd
03
16
2e
c5
f9
05
45
dd
4c
29
35
3d
f6
d0
ef
3d
43
f7
ba
1a
e0
be
37
11
12
f4
de
37
09
1f
0a
1f
cf
f9
db
c2
c4
bf
de
41
2e
05
df
d8
fb
1c
f0
45
30
44
f0
3f
3c
28
1e
26
ee
c6
0f
f0
29
1a
ea
e2
ea
00
d9
17
47
be
2d
44
30
d9
bb
e3
c9
20
e4
09
db
33
4a
02
53
c7
40
bf
18
c9
32
33
e3
ed
ea
e9
ed
ed
3e
d7
06
d4
ca
0d
f3
15
08
43
1e
20
37
c6
1e
e8
07
dc
38
f9
fa
11
b0
bc
40
f3
bc
1d
d1
35
37
26
e6
39
e0
df
d4
0f
24
e5
d9
11
0d
12
f6
e7
24
00
b5
cc
3b
43
0a
de
31
40
52
bf
2b
ea
30
fa
d6
41
3a
3a
14
06
d2
0a
f4
46
44
2c
42
c7
fd
c3
15
d9
24
29
04
0f
1c
e3
ac
18
35
fd
b0
f3
44
2d
2b
fd
e6
1c
f8
2b
4c
30
11
fe
29
23
45
e1
44
d0
41
00
f0
e1
ce
cf
0f
0d
21
04
ea
c9
da
bb
19
c5
16
0e
31
f5
fc
2f
00
23
39
e6
d7
d3
0e
27
eb
1b
db
b9
f8
e9
d5
47
b7
f4
db
c9
36
05
48
3f
24
e4
fc
29
19
c0
35
38
2d
23
19
3f
1f
43
fa
45
18
db
f5
34
0d
c2
de
cf
04
bf
2f
f5
0f
17
1b
bd
ee
d1
20
41
bf
dc
dc
3f
26
1c
c4
3c
ba
0a
0b
d8
f1
dc
19
0c
48
29
02
2b
bb
3f
d1
cc
bc
30
2b
dd
e1
02
3f
24
d2
b5
e8
fc
30
38
cc
05
dc
20
26
fb
47
28
c6
ef
29
c2
b9
ec
2c
1f
32
2c
45
08
e8
35
d1
1d
0e
c7
fd
34
f5
39
f6
14
17
e0
01
39
30
fa
43
ff
2a
d0
c3
08
2b
0d
3a
c0
4c
fc
f4
bb
22
c3
16
10
ee
fd
dd
f3
d1
d6
ef
0e
02
c2
c6
11
36
d0
13
27
e8
29
22
23
1f
de
e6
06
d7
f9
bd
17
43
e9
d2
f3
f4
f7
0f
b8
3e
05
b7
ec
d0
3c
c3
2c
43
1d
43
bb
1a
2b
be
ff
d4
15
eb
cd
f0
b9
36
e7
09
bb
40
33
c4
28
cf
c7
45
c4
18
f0
27
0b
fb
e4
09
d7
f9
27
cb
e0
ce
bc
3c
ed
f0
ef
3e
2d
b8
bc
1d
0b
c8
26
e1
36
e3
1e
13
f5
2c
bb
c0
3d
b9
e6
e8
d9
ce
23
dd
12
1c
06
c9
fb
da
10
c4
1e
f1
c1
f0
18
44
e6
45
47
0b
31
2e
e5
d1
04
f1
e2
d9
2a
1c
47
be
23
e8
e8
15
40
e6
24
b6
f5
1b
c3
33
35
f5
fb
03
03
38
d3
30
da
ce
c0
ff
10
1d
31
e0
e3
b9
0a
29
c8
bd
c5
c4
f1
28
46
d1
ea
f0
ce
c2
13
cd
20
1b
1b
28
f1
f7
c5
22
0c
3d
06
2e
01
33
ff
d4
21
b8
07
30
2c
4f
e9
1e
c5
35
0a
ed
24
ef
02
dc
c9
0d
c4
ff
47
bb
cd
1e
21
0c
d7
33
45
de
f7
bd
e0
4d
43
0d
1b
56
e6
18
d1
1e
1a
ee
37
3b
2c
bc
14
19
06
cb
fe
41
34
3b
33
01
40
b4
18
fd
33
1c
e2
cb
13
1e
c4
44
ba
cf
44
47
d4
e3
bd
e1
f5
d8
2e
41
c8
35
44
eb
2f
1e
df
03
30
e1
f5
3c
d9
2e
3e
d2
36
f9
22
2a
ec
d8
2f
b7
1f
cb
24
e7
32
00
09
10
dd
d2
1a
ce
13
3f
e0
2a
bb
2c
e0
32
c3
b7
36
bb
0c
0c
d5
b9
1e
dc
07
2a
bf
45
c4
32
44
cb
e8
bc
1d
f5
13
18
3a
03
d6
d5
0d
39
30
02
37
01
c7
ef
13
c6
18
06
39
3b
2e
3d
1e
e8
49
f7
0f
0b
bb
fb
ef
c8
2b
c4
40
42
f5
d9
b9
02
fc
07
cf
d2
1c
2e
23
f2
3d
03
32
fd
02
f7
35
13
3f
d0
0d
d1
0d
c5
da
02
bd
e4
e9
c6
3b
34
0c
da
bd
2d
cc
f0
44
37
bb
f0
f4
d2
0b
b7
fb
c6
31
38
37
0e
15
09
cb
4a
cf
30
07
e8
21
1f
3f
da
29
d4
cd
03
d4
4d
de
bc
d9
33
ce
20
01
ba
08
06
ed
e2
c9
17
0a
01
1e
d3
e0
1f
cf
c3
ef
fc
33
e4
2a
df
3b
c9
fc
c3
13
42
f7
f7
29
29
e9
30
2e
16
21
0f
e8
ef
3f
2c
f1
24
42
16
bf
fb
ec
23
20
fd
f0
46
13
d0
c3
38
09
2b
ff
19
cf
c4
46
06
13
00
c8
38
3e
1e
39
27
02
0f
e1
24
d0
11
08
48
c0
47
ba
32
de
00
f7
f8
c8
43
b9
fc
e5
04
d6
2a
d2
c0
fa
e6
be
29
f8
d1
f8
bd
3d
04
c8
28
23
17
f2
3f
e8
05
37
0b
0b
05
c6
0f
c4
22
db
15
0f
3d
f3
3b
c0
c7
bd
2f
e6
2f
e7
45
24
38
ff
be
0d
10
22
09
29
1d
ed
ed
ca
c7
d9
2d
25
04
09
da
cb
21
48
29
f2
c3
d6
da
cc
02
f7
43
15
18
38
2a
28
e5
08
46
30
f7
26
e9
39
df
17
49
17
15
dd
38
44
36
4b
c5
0e
2e
3c
f8
f9
08
cc
3a
2d
f7
42
20
c3
26
08
31
e6
e9
f8
29
fb
2f
bb
b9
12
22
e4
e6
e4
ea
f8
d2
45
13
d5
12
eb
11
bc
50
2d
2b
28
e0
0c
06
e6
4c
bc
3b
1c
2a
0d
32
fd
0c
40
c9
e3
c3
2a
0b
40
0a
c6
f0
38
25
43
12
06
1a
2f
e0
3d
28
bf
d1
b5
e5
cc
24
19
d3
bc
f5
c2
43
2e
22
3e
07
02
e6
3c
ba
f8
c5
22
21
1e
03
eb
46
3c
02
be
e3
0a
0c
17
04
36
22
06
3f
e8
d6
0d
43
ce
25
00
41
db
b6
c2
30
36
0f
3d
d1
21
ca
c4
b7
bd
c3
19
02
f1
d7
48
38
23
0e
e1
fe
ba
f0
2b
10
c8
1e
42
eb
05
11
f4
0c
1b
d6
3e
2c
2d
bb
d0
31
19
43
41
c4
ec
27
26
c9
18
29
c0
11
39
07
3d
bb
23
45
c0
03
f5
05
d5
37
2a
ec
2d
d6
ef
17
e8
d3
f2
d3
c0
3a
c3
35
1c
d5
ed
13
3a
ee
d8
0b
36
3c
b9
1e
0b
be
c0
ec
d7
13
fe
37
f7
12
28
c8
be
18
14
ce
05
c3
00
df
f4
3e
bd
d5
c6
c6
b7
fb
0c
d6
eb
db
d7
f1
06
e4
f7
bd
3b
1c
d8
1a
eb
31
46
1e
15
35
c1
35
e7
f6
d7
df
05
28
0b
bf
18
43
ea
06
36
1f
cf
e1
27
f6
ff
10
41
fc
e9
da
19
4a
32
d1
cc
0a
dc
fd
c4
c4
e5
25
31
e9
19
0c
10
40
f7
27
16
f7
cd
33
41
ec
f3
df
d8
18
df
ca
b7
e0
41
f1
42
e2
1b
04
06
48
d9
fc
e5
21
3d
31
1d
ca
29
13
bc
e4
12
06
2e
43
b5
c9
25
fd
fe
21
e3
2d
26
d1
eb
e1
fc
0f
e9
28
e7
01
2c
bc
1e
39
bb
0b
f5
13
da
05
c8
0c
18
f4
0a
34
e4
ec
05
36
e0
f7
3b
05
29
f0
19
e8
cd
d0
dd
35
d5
3a
ca
45
14
29
13
11
12
e0
43
b9
ca
42
25
41
16
da
14
de
44
02
2e
d7
20
e7
ea
d6
3d
28
06
cd
d8
2e
f6
32
30
00
e2
f8
ba
eb
c3
e0
43
f2
e6
bc
bf
d3
0d
c6
cb
fa
c7
f4
40
d2
2a
2c
b9
44
d5
00
fb
2c
bb
e7
13
cf
fc
22
cd
49
c9
32
2b
e2
15
e3
f8
d1
ea
44
df
4a
31
1f
31
2d
d6
d3
1e
28
33
f5
ec
b8
03
bd
49
f4
07
ba
32
c8
e5
21
19
d1
c3
0d
42
df
cb
ec
21
02
f5
df
be
34
d0
be
46
3e
d3
19
10
12
bc
c6
e1
e5
bd
d2
41
1c
f4
ff
d3
2d
c8
24
f2
e4
4f
d9
3a
c2
25
f2
12
eb
1b
c1
f3
df
c9
44
3a
d7
d6
3f
04
cd
2b
46
03
d5
da
33
c2
0b
e4
1e
27
df
d8
ce
db
07
23
c1
21
07
44
45
d7
41
da
38
f0
35
30
d4
1b
0a
ee
ef
10
df
21
03
3b
c8
ff
42
0a
12
01
0a
3b
3d
12
47
bc
3b
22
b8
d0
e3
07
bb
25
29
cd
ba
fa
fe
c6
f9
45
2f
17
d1
d6
15
15
07
f0
28
fe
fb
f7
2f
bf
12
1f
c8
3d
02
ff
01
e6
48
c0
f4
c5
d9
d2
c8
1c
25
f1
cc
35
02
22
33
d5
09
2d
42
df
e9
00
37
d6
d7
ef
14
fa
12
ea
dc
23
d5
c2
32
3e
d6
e5
fe
d3
36
36
13
40
42
3e
01
11
e8
27
f0
20
2f
42
fd
0f
35
09
d3
d5
35
d2
32
4b
0b
14
0d
c5
45
0f
e0
2b
dc
c9
c9
06
19
bb
c8
fa
1b
ed
0f
06
11
e0
d9
1b
f7
39
ba
ee
f4
30
fc
d7
d7
e5
ff
c7
e4
fa
28
f2
db
12
46
ec
de
c3
3e
22
bc
df
cc
ce
05
e2
f3
1d
21
36
de
f4
22
f8
bd
0a
22
c9
35
1b
1c
25
28
25
d0
41
fd
18
10
bc
0f
32
17
4a
21
45
27
c7
f0
ef
bc
1b
17
c0
23
1d
f8
35
c2
40
0f
c9
41
3a
38
ee
f4
e3
cf
e8
1a
43
dd
bf
01
03
12
cd
d4
c3
fc
eb
08
ca
b9
f6
15
49
47
30
fb
19
48
ed
32
fd
f5
2f
03
3e
e1
d3
ca
4a
c0
06
d9
b4
20
07
39
bd
e6
d1
f7
c5
33
27
1b
f0
3d
d4
27
37
f2
f0
ff
c2
08
c2
ed
fb
cc
00
34
bf
ff
bb
28
c2
0c
1b
42
f2
f0
3b
36
27
c5
c2
16
30
f0
ea
e3
c3
ff
43
ba
d9
0e
cf
26
42
d7
c1
2c
09
08
16
d2
fa
46
37
e7
3f
c6
2f
dd
ef
d8
ba
19
29
31
f3
29
2b
17
0d
0e
d0
1d
ff
48
c5
dd
ef
e9
1b
0a
0c
d5
21
2b
08
10
e3
f8
fd
0f
d1
be
44
dc
ca
bb
23
34
20
dd
2d
db
31
18
26
d5
18
c9
f8
ec
f3
31
34
0d
0f
0f
e3
40
34
b6
c5
17
c1
03
3c
12
ec
33
28
21
c3
12
be
13
b9
eb
e2
bb
e6
cc
f9
c3
03
17
09
1b
38
42
07
29
26
cd
e9
0c
c3
04
3d
10
cb
c1
b9
1d
1f
14
c7
1a
c7
18
c0
e6
ce
45
fa
f9
3c
f0
ef
c6
f1
10
2c
2d
1c
2c
dc
0f
e7
1a
2c
de
14
45
e7
b8
24
c7
d6
e0
da
c6
fd
12
eb
dd
c1
cc
17
0c
fc
ff
46
e5
3c
ea
dc
b9
bc
d9
35
da
3b
23
30
14
d7
1c
f2
04
1a
2c
c3
3b
c8
3f
d4
1f
4d
21
42
3b
bd
f4
3a
13
45
f1
22
1d
32
1d
20
11
10
09
2c
d3
0d
cc
ff
03
cc
dd
c0
12
fc
ba
15
d4
b9
d9
c0
bb
de
37
f5
33
39
11
c2
19
37
ee
0c
0b
23
f5
16
27
21
c3
dd
e5
30
bc
e6
3a
48
23
1f
2c
14
30
09
dd
2b
e0
20
2c
e4
03
0a
e0
f7
e1
e0
d9
e0
e5
37
eb
bd
0e
38
0d
f9
fc
cf
13
30
e0
de
ea
48
e8
0d
e3
c5
e7
eb
02
fd
b8
03
ff
1d
e5
21
01
0a
32
47
10
c4
46
21
1e
1f
ca
dd
ec
18
06
d6
37
c3
c2
13
0a
14
3f
2a
dd
d3
12
41
cf
c1
28
2b
01
d0
28
e6
d5
45
31
ee
38
43
c0
c9
1b
be
c5
19
3a
3c
d3
c4
f0
10
ec
b8
c0
ca
f7
07
3a
c9
36
d4
f6
b9
e7
ba
3f
34
3a
30
c5
0c
d6
2d
e4
d5
ba
10
fa
07
2a
e0
3d
1a
31
db
c1
bc
18
e5
10
b9
f0
19
d2
12
0a
d5
41
bd
c5
2a
de
03
04
c5
e1
4a
ed
3a
16
11
f6
10
29
28
3f
bf
15
34
2d
f0
d7
bd
e8
dd
ce
e3
25
d2
12
38
e6
fa
0d
b7
e8
fe
0e
f8
ef
fd
08
43
12
e2
2c
38
d8
2d
f3
c0
24
bb
ec
bf
3e
2e
06
11
e3
05
3a
c3
b6
c3
01
32
26
f6
ec
f1
36
da
1e
e7
d4
b8
2f
e7
fd
c0
ec
27
04
de
d5
bd
ef
29
bc
c2
c4
35
fc
0a
25
2d
ca
e8
de
fa
06
e0
ee
3f
cd
f1
08
44
32
d4
c8
41
37
f0
d1
f3
df
cc
cd
e3
2f
3b
07
23
ef
11
33
cb
2f
08
cf
bd
fc
37
c4
27
04
ee
f7
d0
11
ce
f1
3f
15
bd
d7
bc
18
4a
f1
44
b8
4c
2a
e0
02
19
48
be
02
c3
05
05
e2
0f
c4
f6
24
d8
c6
e9
c3
ea
13
bc
34
2f
f0
0d
f5
d6
14
32
ba
ca
b9
41
21
1e
d0
da
df
ee
d9
45
c6
cb
f4
f9
e2
e8
07
bd
02
0c
35
2e
1b
d4
16
bd
2a
09
2f
42
24
e4
19
10
f9
00
cb
c8
b4
2f
d2
c6
36
00
ff
e8
f5
10
08
03
e2
20
ff
cc
f2
13
e8
16
04
0d
28
ed
28
f8
d6
40
e7
41
eb
c1
eb
1c
27
d1
3f
f1
3b
3f
09
0a
07
1f
14
47
12
34
31
3a
e2
13
12
e7
c3
db
de
b5
3b
37
b7
28
f8
03
45
30
e0
45
01
2d
c2
cf
15
cd
15
3a
04
f8
dc
e5
e9
cf
10
29
44
c8
02
11
c8
f4
c7
3f
da
1e
0a
ed
bd
34
05
d7
0a
4a
e3
25
dd
15
2c
f3
c6
cb
f3
e2
4a
d3
0e
40
b4
10
02
3b
29
34
41
3f
18
d5
d3
36
f8
b9
33
2c
cf
f8
37
f6
d9
f8
4f
21
df
f5
10
38
24
1e
f7
be
ca
25
bd
f9
2b
fb
d2
c3
12
06
d5
f8
18
27
30
39
ed
e2
c4
2e
17
d9
29
bc
33
f9
be
15
27
2c
0b
f3
ca
11
d8
d7
f2
d6
bd
2e
2e
c0
dc
d2
45
2f
cd
0f
d3
34
dc
e8
c4
c5
39
d2
d1
b9
39
c6
d5
ce
c5
c6
0f
d2
30
ce
c0
c4
42
32
be
1e
40
3b
32
49
27
07
c2
3a
1e
bb
3e
b7
26
bc
cb
49
ff
1e
39
24
3b
d7
c5
28
02
36
db
be
c7
3f
c9
10
f6
21
0b
d0
da
f1
d4
c1
b8
26
ff
dd
e5
00
e2
f6
22
3c
fc
b9
e9
bc
0e
0e
1c
18
d6
b8
e8
e8
fe
24
bc
ba
38
e9
b9
26
18
25
06
bf
d7
e6
05
e6
f8
f2
49
1a
42
b9
bf
15
1e
48
ea
31
d2
c6
f1
e0
ba
e1
40
eb
f8
ec
29
36
e0
cf
2c
30
4b
eb
18
39
e4
0c
bf
42
c9
3f
28
44
e9
2e
2c
1d
e6
b5
c5
1e
ef
19
3c
e5
1f
26
0d
24
2a
d2
10
c4
00
38
d7
f9
11
23
d3
e1
ff
da
dc
dd
16
bb
07
00
43
e3
ef
c2
d2
ef
c8
1b
0f
c7
ff
34
09
da
44
29
e7
d2
e4
d2
ec
00
b5
eb
b7
d4
40
bf
f9
16
d3
f1
d9
c2
f6
e2
bd
b9
2e
d0
fa
0d
4a
22
e2
e5
2c
db
42
d5
db
da
19
3c
20
d3
13
45
31
dd
e1
0a
04
e1
1c
31
cd
07
c4
10
c6
1e
43
dd
cd
0e
db
f3
40
10
b7
d5
3f
17
c2
3a
26
2d
e8
fd
e8
33
08
3b
b9
3e
d2
fe
d6
e5
dd
33
44
37
30
e6
e3
2c
fe
16
eb
c6
26
c0
45
13
e7
c0
e4
2a
4c
f1
23
ff
f8
dd
d3
d6
c6
c2
39
3d
01
fd
08
fb
17
c4
d3
e6
29
13
1e
f9
25
43
03
25
f5
41
d3
bb
06
d6
d6
de
f6
04
be
38
01
42
f8
0d
be
cd
46
d4
df
3b
1d
28
be
b8
bb
32
d4
e9
43
18
11
36
d9
eb
bb
f4
c4
d4
c7
3e
14
c6
34
fb
e0
ee
e4
f0
e6
0d
0f
06
f6
e1
ee
ea
36
eb
18
dc
c0
c9
e4
41
42
e6
25
c2
fe
49
17
f0
c7
d9
43
26
f1
21
ed
f3
1a
c7
c0
01
30
d7
22
b8
d6
46
bc
3c
e0
cc
be
cc
0f
21
fc
09
db
bb
c1
1d
08
bf
0e
c1
d6
e6
d8
06
bd
d7
26
db
f6
cf
ba
18
db
c4
07
31
16
02
d3
bf
c8
19
d1
cf
c1
fb
e3
1d
fa
45
e2
c7
c3
e6
fa
db
f8
c0
2f
26
43
2e
18
d1
32
02
25
b8
ff
08
0c
ba
ea
b7
45
21
c5
46
30
1c
35
02
44
f0
d1
18
21
bd
29
ee
bd
19
2d
ca
11
fd
36
c5
00
ee
35
cb
0e
41
bd
fc
2b
09
0b
f4
2f
53
4d
e5
0d
ee
dd
05
2d
45
0e
00
45
c5
3d
1b
bb
09
0e
c2
f5
2f
16
37
f9
5b
cc
f9
02
1d
42
1b
06
00
0d
d0
fe
be
f5
b4
28
2e
2f
f4
0d
03
2d
00
52
4c
2b
cf
e2
34
d2
d6
36
05
46
5a
f2
b7
4d
39
c9
18
02
11
12
3d
c3
38
27
e5
f2
47
ef
cb
fb
c2
09
f6
10
49
2c
0c
c6
3a
05
de
f5
0d
cf
27
d6
e7
2f
37
d8
ef
e4
fc
1c
fe
bb
d2
f9
eb
ca
d6
ee
23
33
dd
30
30
46
dc
18
07
32
39
f1
d1
e0
2a
fb
37
d6
3e
bc
c3
05
3e
44
0f
d3
df
c9
be
f4
39
d0
0c
1e
27
ef
f2
29
11
dc
db
3a
15
36
e5
fa
d3
1d
c7
2d
bc
0b
dc
c9
bf
d5
3d
bc
c6
40
da
0e
08
d6
e1
e3
ee
c6
41
29
f0
f0
14
40
17
3d
23
e1
bd
f3
fd
39
34
fa
f1
f0
3f
13
ca
30
f2
cd
f6
cd
46
cd
dd
30
32
dc
cc
21
b9
ba
38
1c
e1
32
24
c2
e3
27
45
19
e3
3e
c0
0b
fc
49
bd
c0
d5
c6
dd
3f
b8
47
ca
1a
de
c0
bc
d6
39
ea
3b
0a
05
07
e6
44
ef
f9
1b
de
0e
0b
ff
c7
c4
c9
43
be
e5
c8
d0
ea
c7
18
fa
26
d6
24
da
2c
e8
49
1a
07
c1
0e
1c
1f
e5
14
42
44
f8
2d
f5
fa
be
fa
16
e7
40
bf
15
06
c1
df
43
e9
c2
11
e4
c0
c3
d7
f2
ef
bf
00
c9
eb
44
2a
4b
2c
f5
fd
01
36
b9
c0
f8
0d
da
2e
b6
2d
c5
08
2c
17
41
d2
0c
3b
cb
c0
ff
df
e6
3e
32
dc
08
cc
fc
e7
1b
3c
fa
e3
ee
c1
ef
3f
e0
c0
f4
09
2a
0f
cd
c0
da
fe
17
ee
4a
43
0b
17
ff
d1
08
06
ba
17
0e
3f
c3
13
43
d5
40
d1
0c
04
f3
db
02
df
ce
1f
48
f2
db
c3
cd
0f
e4
ff
47
29
f1
06
3d
d2
17
42
29
17
c3
34
18
03
0a
0b
f8
ed
47
34
d1
01
cd
eb
dc
1f
2b
0f
45
13
c6
f1
0c
37
ff
36
45
0b
45
d9
e3
e0
c8
d8
26
e7
c9
2f
e9
47
1d
f5
f8
fb
20
19
48
fc
ce
df
24
e6
dd
41
ea
26
27
42
c2
df
ba
d1
40
bc
2d
06
f1
18
0c
0c
dc
29
bd
3e
00
14
0f
b3
11
f2
f7
3a
e4
f2
f8
02
06
d1
bc
0b
20
f4
b2
4b
b7
f3
5a
15
ef
bb
41
4f
46
34
d6
30
b8
0a
b5
2b
22
07
f9
e5
2c
49
2d
31
23
40
3a
3b
d5
07
d0
0b
bd
ca
31
1d
2b
e1
34
b4
17
33
07
0c
d3
f6
fc
f2
c0
4f
ff
db
40
cf
d4
ae
c3
25
3c
01
3f
10
22
e0
0c
12
e0
06
e0
42
01
c3
f9
db
02
1e
f0
da
d5
5c
f9
de
ff
dc
be
24
01
cd
c3
f2
ce
fe
0b
fe
3a
13
c1
d7
39
0b
30
ba
cd
1a
33
14
d5
c2
e1
c4
25
1d
f8
ed
fc
27
fd
16
bf
43
1e
19
30
0f
0b
1e
cd
3f
de
0f
3e
06
42
f3
30
2b
ec
36
c7
eb
f6
31
22
09
0a
26
e6
bb
21
10
06
c0
f9
cd
47
31
c0
45
d5
38
3a
02
3b
de
3f
00
fb
e8
cd
1e
ce
45
fc
e7
1d
0d
e4
34
be
e9
1f
41
0d
c9
ba
d8
f6
03
bf
12
47
d5
c3
2e
f6
28
01
d4
d7
26
fc
da
06
17
42
0e
c8
22
08
2a
d3
27
2b
38
bf
c3
2a
32
b7
2d
e1
e0
de
3b
10
da
29
37
18
ca
be
c1
2f
fd
de
cf
d4
01
20
21
1a
e1
be
b9
d5
f8
23
c1
29
2e
d5
45
0e
c7
f9
d6
33
41
f3
ba
c6
0b
c8
d9
44
b7
27
02
c4
c4
45
4d
f5
0a
ed
ea
08
bd
17
33
45
3a
ee
04
38
31
49
f6
ef
bd
e6
37
bc
e4
f4
fa
0e
24
33
1d
e3
f7
2d
cf
e3
d0
46
0c
34
06
37
ce
2b
2b
16
b9
27
07
ed
40
2f
1a
ff
15
eb
f5
cb
bb
4c
d9
dd
1b
1b
0a
1c
33
d6
d3
cd
ea
43
cf
0c
1a
eb
c1
44
28
00
c6
2b
00
4c
1c
f6
e4
be
1a
16
23
18
e7
2c
49
e5
cb
d1
46
de
c9
15
cc
0a
ce
ef
dd
b2
0d
f4
14
ce
fa
e3
0f
39
fc
dc
12
3b
dd
30
dc
2e
f6
23
38
36
1c
ca
0e
de
c4
23
e7
3b
f4
f7
09
1d
4b
2f
fc
ea
20
2a
d3
c5
d8
2f
e3
0e
bd
3e
4f
de
df
14
fb
53
c9
3f
c6
3d
b7
40
c1
ff
23
ea
43
20
1c
0d
1a
23
1d
da
29
f5
55
d3
f2
fb
0c
25
4f
c1
e9
d8
39
34
d4
fd
b6
4f
c0
3b
db
16
db
eb
f5
06
57
da
3d
d2
c7
3b
2a
f0
c0
e8
fb
17
42
38
c0
ff
16
ec
be
c0
0f
bc
1a
08
e8
de
e8
1f
e5
e1
0c
d7
e4
26
42
d8
f1
fb
50
08
23
2b
24
1c
f2
3b
37
f9
0a
fa
e8
25
d7
12
f0
56
19
21
02
ff
4a
da
c4
d0
ec
24
df
18
e0
36
e7
f4
04
cc
d3
bc
e7
fa
0f
d1
fb
49
bb
ec
2f
c0
c6
c2
fa
01
03
3e
f9
fb
39
b7
e7
3f
0f
e4
3b
e2
24
3e
f3
20
22
40
fa
4e
bf
14
f3
4a
e5
e3
47
23
c2
cd
35
c3
c7
be
c3
41
1f
ed
cf
2f
cb
43
24
ee
dd
1e
46
fc
2b
d7
20
ed
e6
11
ca
1f
39
0a
b8
e3
21
34
ea
c8
0b
d5
49
19
15
08
28
1f
d4
17
2a
01
1b
cb
bf
fa
13
ef
40
09
e2
d5
0a
d7
05
f0
25
49
36
db
1f
2b
08
ef
bb
e4
c5
0a
47
c4
48
40
15
cf
4a
33
2c
18
0f
d4
e8
eb
b4
ed
2f
32
32
1d
32
fc
34
1e
1f
42
37
1f
bf
2e
cc
ea
1f
05
04
c1
03
f2
f1
09
f7
09
d1
d8
35
f0
03
32
1d
ec
d7
40
e2
0d
1c
d0
c8
1d
ba
1c
f2
fb
45
f7
fe
be
f0
f6
39
0c
1f
f7
36
29
44
f5
c6
bc
c6
3b
e3
c5
e1
c6
0d
29
21
3b
31
bf
d6
f9
47
db
bd
f6
be
c9
cf
41
bb
07
cc
dc
12
0a
3f
c8
1e
dc
34
d4
f1
03
c5
08
1e
23
03
f0
e9
ce
ce
42
ee
37
f2
41
fe
c1
d2
18
15
e7
ca
df
3b
09
e6
39
d4
0c
d2
e6
f1
18
12
36
40
d7
e8
fa
45
f7
48
b7
d4
fe
49
1c
24
21
c3
d9
3c
41
ef
36
13
eb
cf
23
0a
14
ce
f2
be
ec
39
c1
45
3b
44
47
dd
22
00
ca
2f
e4
bc
39
28
f0
cd
28
c9
ba
2d
05
c7
31
e3
dd
dd
13
39
17
01
f6
3e
35
fd
1f
f2
d1
3d
f8
3d
14
20
37
36
d8
36
d2
20
e8
f1
bf
f2
d5
4a
c0
c5
13
d4
f7
22
e7
ea
bf
f7
bf
3a
18
ba
ea
1b
48
00
cd
0b
3b
03
cf
28
e5
e1
27
30
f0
27
c9
37
3c
2d
f2
43
47
08
2a
29
b5
48
d1
c8
e1
17
3a
f2
d7
3e
3c
f1
08
fd
0f
db
ca
f8
43
ec
e6
2e
f2
eb
02
08
26
d9
fa
20
c9
eb
1b
ce
07
ed
c8
09
bd
15
f5
fb
1d
27
d1
d5
f1
fa
fc
d4
d3
e0
32
c0
2c
2c
e0
f3
02
14
0a
2d
e9
bf
14
e0
f1
23
ce
c1
26
c6
0e
f2
c0
2f
16
c6
39
23
d0
15
2a
23
0f
11
e7
44
24
45
15
30
25
34
bb
1d
13
26
e3
cf
03
c6
da
f6
ea
ca
17
14
fb
03
0b
39
b8
fc
04
3c
25
3c
1f
22
bf
0e
db
08
e7
dd
e8
d6
07
05
22
bc
bb
10
10
0e
33
0d
d3
42
1a
3b
2d
d8
fb
fb
c4
03
26
1a
cb
e0
05
b7
46
12
44
14
cf
f0
0e
40
38
33
18
36
38
38
ef
de
59
5f
36
09
dc
09
3c
ea
24
e7
05
bb
ff
c7
cd
30
f3
24
ee
cd
cb
bd
d8
b9
02
13
da
c6
44
01
d4
f6
37
4b
16
26
d3
f3
30
3b
f7
c7
44
08
f9
2e
c3
b5
6a
1e
d3
be
ef
c1
51
0b
35
25
ed
ea
02
c1
4a
3c
41
d5
0e
3c
ff
2b
f5
4e
26
ee
f4
e0
d7
1f
eb
1b
00
18
c2
29
ea
ee
02
2f
34
47
36
d0
0a
c4
1c
3e
27
ee
40
61
20
41
ec
0a
f3
48
4a
27
1d
d1
4a
e3
1b
bd
ec
ed
cd
48
36
09
e0
d7
33
2a
bc
e3
e3
c8
47
3c
1e
14
ce
d6
43
e9
3d
0b
1d
1d
47
1d
15
c5
48
19
31
30
00
07
eb
f1
15
c9
f7
08
cc
12
d3
06
0b
c7
e2
2e
da
3c
4e
3d
bc
e2
49
c8
0e
e6
1e
02
da
4a
19
2e
df
cc
39
07
b7
c2
3c
ee
39
15
d5
3e
d6
e1
3b
bb
c3
3f
2d
b8
d2
d4
0c
d2
f1
3c
46
f6
fb
ca
0b
31
20
ba
35
26
0f
e2
12
13
40
4a
44
1c
db
06
45
05
3c
4a
19
2e
47
2e
3e
39
f1
3a
f9
4a
f9
c8
3b
f9
f8
fd
f7
36
0a
c4
de
cc
10
4a
c2
38
bc
28
28
b6
bb
2f
be
1f
15
1f
22
da
08
18
01
d1
2f
2b
fa
3d
c4
1a
1b
d6
44
f3
23
de
dd
40
2c
e3
f3
f7
fa
45
41
1b
17
bd
2a
fc
f1
0f
28
21
cc
17
df
f7
e6
02
ee
f5
39
3c
40
11
04
3f
df
c2
fb
c0
24
2e
e0
cb
20
42
c7
bf
e8
47
eb
bf
ff
2c
fc
1f
1d
14
b9
da
bf
ba
ba
d3
f4
0d
c3
04
cb
23
e5
1b
46
bc
1a
de
bb
d6
fc
04
3d
d4
d9
d8
c6
cb
ca
e6
f6
28
06
d6
d3
3a
bd
d9
48
25
44
e7
3c
41
cb
18
03
cb
c4
cb
3a
32
f7
38
1e
12
2f
dc
43
dd
d9
2a
08
35
c9
c3
ef
3d
2a
20
d3
d4
32
47
28
f6
c2
de
25
43
2d
c3
e6
05
00
df
30
0d
45
fc
36
13
f1
bf
38
c4
32
43
f4
4a
26
bb
cf
de
fd
17
fd
00
f2
e1
fa
ba
e9
38
0d
40
41
40
bb
38
1d
33
f9
14
d0
23
08
e4
41
bf
d7
0c
cf
46
d8
33
22
38
c6
2d
30
d6
ea
02
e3
36
3f
28
04
14
ed
2a
46
1c
bf
da
09
27
ec
02
00
d0
2b
f6
ef
ee
f4
bd
07
ea
f0
44
fe
1b
25
08
29
48
24
1f
07
e5
ce
f9
10
36
04
dd
f4
eb
fb
c0
11
c1
c0
ee
fd
3b
1d
f5
44
d7
08
3e
f7
23
ef
f5
00
d6
27
16
b6
e2
15
3a
3f
cb
b8
0f
17
f5
30
14
2d
2b
15
c9
24
2b
0a
fb
d1
3f
d5
1a
b7
ea
db
3c
19
ed
29
3b
c2
1c
ca
27
ea
c4
f6
1d
df
c6
d3
e6
08
00
02
b6
11
e7
db
25
f8
25
b8
eb
ee
17
bb
d5
21
39
06
f4
e2
27
db
bc
df
ec
f7
2e
e6
34
e6
2f
1c
cf
31
bc
c1
1e
ea
c9
e4
d1
36
eb
3a
e5
3b
41
32
b8
cb
fd
10
d9
e4
11
cd
dd
03
da
3a
d3
2a
e2
05
f5
1d
c6
d9
c9
3e
46
10
e6
f0
00
30
33
ca
43
ca
f5
c0
34
2e
d8
3e
43
fe
e9
bd
e3
fb
0c
30
17
cd
d7
30
05
e8
e4
e8
db
09
da
c2
e9
1d
c6
dc
c3
01
da
19
fc
15
21
3a
0b
36
d8
46
ec
05
1a
31
c9
bc
f3
bd
08
41
0e
d2
22
ed
d1
2d
28
c6
02
44
3a
b9
06
1b
d2
c1
0a
f7
3a
0b
14
c5
d8
1f
1a
c7
bf
38
12
fb
e3
4a
13
07
f3
c8
3a
e5
ef
f4
44
3e
c5
33
26
06
f1
34
1d
2a
fe
c0
20
b9
3f
37
f3
e0
1a
c3
fb
f5
44
cd
49
40
23
3a
21
05
2a
16
2a
2b
d8
31
10
e4
0f
32
2b
3c
fc
00
f1
2f
42
35
00
de
d0
28
f0
36
db
10
ed
16
e1
eb
1e
33
cb
bb
da
41
10
bf
d0
ce
bb
db
3b
1f
d7
f5
01
e4
dc
0b
c8
fa
1f
ee
f5
c6
0b
15
ca
08
ec
c6
37
0d
3a
fc
c3
1f
2b
fe
c4
ed
e7
c7
36
2a
2d
1f
39
c6
35
e3
0e
e6
39
da
f4
d5
06
2f
ce
de
c2
e9
be
36
d8
05
46
19
3a
22
43
30
d0
43
ef
f7
43
ed
fe
c3
bd
0c
c9
d5
cd
19
3a
1c
14
f9
0f
30
2a
46
e2
14
46
42
1a
ed
3e
f8
46
c9
e8
08
19
49
2a
46
27
20
be
45
37
40
2e
bf
1a
ec
d7
33
eb
d7
1b
2b
41
d3
04
04
37
1d
dc
c2
27
07
c4
b6
44
1a
c2
30
27
d9
22
bf
0b
33
23
cc
09
09
ba
28
d5
fe
13
d1
38
43
c4
e2
0b
2e
10
be
f0
2e
17
33
bf
c5
cf
1a
d5
31
d1
e4
16
d6
e3
33
1c
18
c5
2a
f6
39
23
b7
13
da
c6
d2
d9
dc
be
0d
44
fb
09
eb
13
ec
07
04
b6
47
08
fb
49
2e
ca
fd
32
40
12
2f
24
e2
bc
43
c9
00
e8
e2
e0
28
e4
cc
4e
d6
00
fb
3e
2c
c6
3d
1b
f5
13
49
e3
bf
25
c5
2f
fd
45
cb
34
db
2c
15
00
58
46
d4
3b
bc
b5
d5
37
bc
15
f4
41
ea
ed
e9
28
0a
3a
f0
f7
04
34
c7
cb
28
4e
e0
48
b9
33
20
19
2c
ce
1b
ff
05
1d
de
c7
b2
d8
54
1d
37
e4
3d
08
e7
c5
28
22
26
13
c1
eb
f6
3e
b2
02
29
e4
d2
09
b7
d0
d7
ee
c8
c8
14
46
bc
32
3b
f1
14
d5
29
2c
01
bf
03
3c
e2
24
c6
cf
da
47
dd
14
19
e7
d3
d3
c0
49
17
0b
3b
ea
f8
d6
e9
fa
cd
45
2d
42
bc
3a
be
eb
ce
fa
05
e8
e3
fb
