ef7d
f132
e9b0
0e8c
e00b
fd50
fb0b
fba8
f1b7
d9f3
3699
10a6
1ec0
e8a7
0083
e8aa
e62d
db29
0668
045b
1946
154b
0880
ec78
12ac
f78f
131e
eeb4
0a7b
dea3
27e3
25f3
dfb9
083b
e62e
0ca3
f2f7
147a
0695
00bd
e56e
f952
f57a
daf2
feb5
0bac
097d
fd2a
04ac
e459
0c8e
0bea
d9b1
0b6f
f7d9
1fc1
dd44
06da
e46a
350a
0dfc
1530
1a27
049a
016a
e3f4
fc6c
f25c
1fb6
0789
dcaa
152f
e08c
1d99
fd47
fa78
01e9
1ebc
de0d
da8f
1bc3
fa36
dcc7
2b08
f587
2429
ec17
0dac
e61b
1788
0240
2195
02fb
03f3
1450
21bd
1054
0114
e930
f656
e160
fab1
1f87
24e6
e298
f2e7
fd3c
f816
043a
cb9f
082f
052e
d5da
0cc5
edbf
efcd
f15e
eb08
eb7f
e478
248c
f20b
0d6b
19d2
1c1c
0704
e4e3
e5c3
236d
20f1
f7a3
1265
08f2
175f
088d
1d9f
e879
1e16
e2e2
faa3
fe65
24f6
0825
27fb
e59b
ffdf
e032
f053
0e97
28cb
e916
df7a
fa49
df1f
0a9f
1d70
0159
e89a
d2c5
0db5
14c5
d866
0971
e2aa
146f
0c76
e3e1
0b09
1504
e15d
1756
ecb1
3529
e702
fdb5
f3a1
013d
f7e9
d780
342c
f3e0
0de6
17fd
13d9
f2ad
040c
2599
144f
f798
fd53
f917
2572
e6c4
e8f1
ec40
0d77
ece6
eb0c
052d
15d6
180c
006d
efa6
0e3f
170a
f398
f1db
1fb0
0cdf
fd15
11a6
ff1c
e488
36ba
e6c0
f9fc
08f1
356a
f0fc
0736
181e
0422
f96c
14e0
fa99
feda
e26f
f823
eeab
1d92
e8f9
0569
f02e
2486
044d
2526
fbf4
02f4
d01f
ddf1
fa9a
1874
2d28
fd8d
dfcc
e889
e753
1c89
257a
e9f3
f31c
f1be
f354
16fe
1858
05ae
fb16
154d
e5bf
2bcf
e021
0243
03fa
ee0a
eaa6
f987
fd4d
e71d
e457
e82a
25ae
3085
0e30
d4da
ef98
25b4
dfa7
e98b
23c2
fa29
1d62
f41f
dcbf
d900
1a52
e9ac
2349
2647
ffba
0e9f
0f1e
e3d7
0e4e
ecd5
ea65
e2c4
0282
0445
f3b8
0225
f2f7
17ba
16b9
2ab5
0bbf
23e5
e508
0e0c
eabe
e40f
fcd6
ed46
1198
f3bb
dd90
1b05
f7b9
19bd
e949
da49
f667
e025
1c0b
f2c4
1e75
06e2
f9bf
fd73
1360
09d5
f5fe
ed8c
dd1f
ea1b
1941
2972
f63a
137b
0cfa
10cd
1843
df53
eb26
d593
e752
0d71
f26e
0ab3
df86
ecbb
df84
2761
f531
e078
f5a2
0768
1baa
e8e7
1e89
fee0
029d
155a
f26b
1984
0f9a
e90a
0902
0a88
f06c
df15
f1e6
22a3
fae1
e313
ec23
1f58
0bb7
e9b1
121d
20e2
1057
f4e3
0ede
1b12
0aca
e628
dc77
068f
1354
ebaf
285e
fd1b
e557
e2dc
13e7
1ab0
128e
fe14
0c9d
e0ab
04fe
147e
f972
f73f
22f6
15cd
1f1e
1b7b
2449
0c59
ec02
0267
09be
fc41
3b5c
f226
fb99
e2dc
f02f
fddd
0222
2909
ec24
3f8c
eb96
db90
1180
c69d
e096
0a0e
0634
eccf
f434
0cff
f530
f54a
d37d
046e
e505
e8ba
0700
09ba
db10
e216
0424
f64a
dc81
1ae3
0d66
110e
223b
dca5
dc9b
dca7
13f2
18e0
e5dd
1d45
0692
16b7
112d
0d60
db20
197c
eb32
f7f6
f881
1731
dece
09fa
1b01
10d7
e67f
e5af
f5da
0716
ea1a
fad1
e3da
1594
1d09
06c4
ed25
0118
ee96
0c8f
f823
fecd
13cb
df1c
f2d3
12b3
d525
137e
1a1d
0b2c
e246
fe97
1b84
10ec
dfab
19c8
dd21
eed2
183f
e2aa
1f56
22e7
2b40
1da5
f3d4
1385
d7ea
e05e
0098
03d5
dbac
fe4c
fcc0
df17
118f
20fa
f06d
ebb3
e541
047e
15db
166d
e8a0
e77c
fd1f
1c6c
2b83
eb15
21bc
01b0
eec3
fa65
fa8f
200f
d945
1cf5
1cf1
2d3e
040e
16c3
dc51
0714
1347
eaf9
fc09
fec1
dca9
0366
10c2
0b6e
17f6
eeb5
f909
f31b
04fc
1175
f1bc
0a19
0caa
0b76
e5bf
e17b
12ae
e774
edf5
e8b9
23c1
f5af
ff2a
eaa8
1d7f
ed9d
02bb
1f6c
fdb5
0846
fb97
f9cf
fb60
2033
16ec
0f12
da7a
1faa
f12b
0017
249b
e39f
dbf0
edf5
22ad
f443
f213
1c99
1727
0e39
f702
e5cd
06a8
e262
1b61
dc09
2ab5
1ae4
08c7
2868
1bfe
1853
fbec
f0cc
011d
ffc1
1048
ebb7
f908
1ec9
d8da
ed00
f4ad
e276
e907
f2f9
062d
e8ee
029f
e6e1
d81d
fb4f
1780
05c4
e746
fd46
f810
2324
e338
e11d
30bb
2161
dc1d
19a3
e8bb
0161
019c
e7de
f9e2
11d7
2793
ea50
18f1
052e
2559
f17e
2298
1a18
fc2d
099d
e465
0666
f222
1922
e0a0
f64f
e085
00dc
1f18
1231
17ef
0ed1
0988
183b
14d9
02d0
0160
dfeb
fbc6
fadd
db75
d7cd
fa3a
16a0
077f
1594
18fe
3aa4
f5aa
22cb
eda3
0000
e612
f6ab
ef34
1464
fb36
0e85
ee22
1120
ebc4
c9f3
1a6e
03bf
e0a1
14ad
da14
da37
1c98
3206
fee7
dbaf
275d
2468
dd0a
1867
000a
0e6e
2e85
e154
324f
16c1
0bea
1a35
0c79
dbef
e6f4
1b08
1667
1fcc
08e1
110e
e087
d478
e037
20d1
eca1
1d94
f3f5
eb2a
e6a6
f17d
263a
dd93
f0eb
16fb
fef2
16ae
de71
e6e3
eee9
f96d
1e8c
2381
1dca
dfe6
f918
224e
1556
f183
e8d2
246b
de2c
08a7
fad3
e1b6
f144
13c3
2bf0
ff1d
e450
ef6b
01d2
0b92
13bf
d94f
29d3
df0c
05f9
2f37
03b9
2630
e946
ed35
0344
dfd6
f92e
359c
e91f
eec7
d7cf
0dac
eeb8
40b2
1e7f
f6c1
e8be
0ef3
1d08
1d21
febd
0964
01a1
d7c7
0d6d
0427
ee92
1227
eb30
ff12
2788
18bf
16b0
faf5
20ae
21b0
ed43
f247
ee7f
0c0f
e543
e35b
e306
02b0
3e06
1500
ff36
1366
23be
0d54
f395
fac2
e932
f5f9
0236
e67d
fef7
ddf7
d966
f434
02ea
1992
da32
0eab
1307
fa25
e2bc
ea50
e9da
e63e
dae6
f035
f720
3854
1683
e24c
090d
e920
ebc9
2ae1
e2ed
1ca3
e077
faae
e47c
0e4f
16b8
f480
2110
f75e
05aa
ee85
012f
e895
ddd5
ff03
ef95
1314
091e
1691
154a
f28c
04fe
070d
1d50
e0af
e532
25f8
e383
dcd1
1ccc
f5a0
e54c
f53f
0e15
0be1
14ff
07f7
f536
1ab7
e8bf
dd2e
05cd
f2d3
fe93
f93c
02d3
0b50
da52
475d
093d
1a65
d8d3
e609
0fe0
005c
1ade
dec1
0e01
09ec
efb5
1c11
0e00
e329
e6a0
e6b7
e030
1c56
dbdf
e23d
f501
038a
f9f8
eda6
2068
00d0
1587
18af
3ddb
14e3
de1b
0b6b
0e44
26ac
dca8
e341
dc0e
15bf
e1cf
e014
f1d6
e2c9
1c1a
1b9e
14ec
01ca
ee6a
e938
fac9
eacc
1d73
0603
e63c
14b8
fa38
0121
0b20
01e2
200a
ea4e
d932
0471
d8fe
d7a9
10aa
ebcd
22b1
ea5b
06bd
e01b
dcc0
1f9b
1d3c
dcab
f8fe
0838
0732
127e
da36
fab2
fdf0
068c
e1d1
22a5
1907
f469
e7f8
f621
0cca
e55e
ed1a
1097
fe70
2ae6
1e09
1319
2bf7
efd8
1385
ddc2
03f8
f15b
d98f
37aa
1688
f4ce
df08
f1e5
eea7
0bb2
fa51
1a19
1fbf
ef3e
e3ab
e701
1dbe
f5a0
1c3b
fb65
fddb
0150
21db
e887
0600
24f8
23da
f4db
27be
ebb6
f33d
e410
da0d
fe5b
069d
07e5
3312
fff9
fc3b
0dfb
2771
f598
1670
e77e
0450
f7e9
f1bc
249a
0f79
1053
496e
f806
1a47
214a
0ae0
0413
028d
4974
f7aa
2575
1b94
22bd
1866
1a19
e683
1e87
eb04
f37b
1c4d
f1cf
fe8d
f143
02fd
1624
da3a
0824
f2f4
0517
ea89
0fcf
f06c
f10b
219f
0019
ece3
28fa
f5e9
ef8f
224f
26b1
e9f3
f3b2
f2d8
faec
dbf1
0011
1652
1d62
051a
f273
dcc5
20d5
1aaa
0b79
f7fc
e3ed
0127
d89a
f30c
d9a4
0b55
e678
eccf
2894
11d3
12b1
fc7a
d012
eaf6
1575
1ae3
e604
e22c
f027
0dda
2454
f7f7
f964
1d46
f449
25af
1ccc
df8b
f672
e586
f40b
0c1e
04ca
e4ab
e36f
f1f3
1fb1
e835
fcf1
19ae
1df3
1c33
04e4
4472
e0fe
f7cb
e555
f62d
f809
d82a
e65f
1d81
eeca
f878
f6d3
ea18
ef5c
e448
18dd
0092
db30
0dc1
ea04
f8c2
e667
0604
ffbb
2379
08fd
0313
d75e
f37b
e4dd
0d87
1c6c
0ace
01ec
f90d
dc4c
c868
def7
e423
e1a5
2684
0460
160b
4545
2e5b
dddd
1271
07b9
fbb0
2339
1391
e254
fb07
064a
14c0
fe4b
f3b2
e50a
006d
e324
f33c
0876
dd3e
0d91
0464
1d30
107c
f954
e918
04d7
e21c
f464
e39c
1f8c
179e
f792
f7ea
29d1
f0f9
fe8b
edec
15c0
220f
0ab7
2941
fbef
1ad7
f0cc
ec42
e34a
e9d5
0f58
114d
fe14
12a3
0d7a
e91b
febd
0708
e781
07b2
07e5
260d
1a31
ffe1
ec95
26f6
eee0
2d07
e269
3de3
0a91
de45
fcc4
db8f
d166
19c5
05b3
05db
e928
255c
0891
e9c6
d256
f502
260d
f87b
1371
190f
f2f9
fdaa
f82f
27c0
dfe6
2568
c909
2535
ee83
e6fb
0b12
032b
e79d
dfde
e5d2
030d
1ffb
def2
1208
1375
db26
f789
f994
148a
20cb
d8ff
fe91
ed0f
1ecf
0c6e
f52f
e711
ea47
1ff7
20cd
f548
2207
ed3d
d1b8
10d6
e662
0557
04b2
f133
0f34
ffeb
12c5
ea47
f141
1a91
2435
15d4
1235
e31d
e63e
196b
f158
ef82
19e4
df87
1239
ec1b
fa5d
de35
26e0
e9c3
f9b7
f877
25a2
ff44
048b
19a5
0d6a
0e4d
0465
e65b
f69f
dda9
3ae2
0612
1bda
21d8
ec28
0f04
e1a3
109d
1b17
ddb8
fc47
d033
0d99
e850
e0cc
22f4
ff9a
09be
ea9f
2602
eec1
0fab
da01
e229
eb56
223c
1bd0
0abc
ea48
f9ed
d8cb
0735
f904
2072
08b7
fe4f
1651
07b9
1ed0
e049
d74e
1269
e9e1
feb6
e723
08ec
0be9
f82d
0a14
e758
e00a
23e3
e8bf
f935
f260
07ce
212c
0b53
1003
1660
1591
1378
0f40
0eb3
1446
ee16
10bd
19d1
f6ca
db60
1a01
d83d
3d11
2262
ec9c
05e7
e2d1
fc56
e8e2
eea2
e26f
db06
21b0
0b2b
db39
2ab7
e232
0278
e04b
f6da
ff33
0e23
eb29
0fde
0c2a
ef29
10f5
1642
0777
f59e
deef
0f00
1dff
1828
1d16
f17e
1ba4
100e
0814
26a2
1db7
2111
ff74
20e8
e35f
3200
160c
e483
f21f
e436
0867
f150
1ed6
ea0f
1cea
1097
0f83
f215
2786
f004
fa79
eb59
f06b
0348
1b64
29f0
f753
11a0
fc53
de09
16b2
fc07
ffda
0be2
1c45
0d16
031b
fac2
15a1
e76b
f7c5
22e8
1efa
f78a
f864
0af7
4652
1b8e
e402
280a
0777
121a
17d0
2ace
efaa
e9db
08ea
da4b
04fb
f326
f93e
eeaf
e3a8
e67d
0d7d
dfbe
daa2
1636
0ec2
228e
134c
f8da
f4f1
f9e4
159f
fca0
f93b
0058
e376
d1d8
e931
1902
0513
16a8
e257
1c26
1090
1c04
2508
e753
e034
e239
f4ce
11ba
1585
0e99
d04a
d54e
1ad5
283c
f8a6
e0a4
d72a
f7fe
fc76
eb12
0e4f
1b31
f54b
f5fb
22d1
e63d
e257
278e
ffb0
ede3
e3b6
fc18
ef98
ebf0
17db
2126
2b52
dedb
e9ea
0331
3355
162c
d78b
27d1
22bf
e3c7
0ab2
e389
2568
0d1c
f438
05b9
02e6
1734
1435
1b94
dd11
f2f6
0fc5
1ee3
fcb5
160d
44c6
d82f
16bf
e292
1f43
2271
2112
3349
2b42
fde9
ede5
1581
e428
07fb
27eb
0e25
f3d3
0011
fe83
d7d9
0530
f810
e9a9
007b
ebbe
f7e9
1057
1402
03fb
f288
1ed6
f8ac
e73a
24f7
edb8
2921
0f5f
16db
e959
dbc6
f58a
de7f
cc01
0275
02ea
1648
163e
e648
f288
04bc
da4d
1a9f
dc1c
0cbb
eef7
0875
d83a
0bf0
1d83
e8e3
edf8
26ed
0bad
d9a2
ff9f
1566
1912
2216
ea34
e8b1
ff09
f719
e10d
f18e
e70b
fc76
eb14
eb49
de5c
f8d9
1a02
db24
de6e
26d8
2205
ee0b
4cba
ebfd
d414
0e8b
f774
ea00
d445
ef2d
ef46
1d1e
d986
133d
1f61
0c46
f1f1
1212
49bf
09a5
df9c
0716
15d2
ddcf
4749
f281
21a7
26c4
4d1b
dc8c
fe65
222e
f7e9
239c
f162
de72
e046
fdde
ee93
109f
1587
ef39
24e5
ed9f
243a
061c
ff4c
1e8a
e9d6
ec77
0351
26b0
eaef
0a1d
0022
f9a2
0ec6
2833
ddc0
efce
e5e1
ee1a
dd7e
d2a5
2037
ef54
e62b
1abc
dd64
f377
cf12
1bb0
0925
06c8
1ce0
195e
fcbe
ebb5
1c5a
125a
2696
21ee
12de
e670
ed3f
3fe4
f362
eecf
1bef
2313
2394
f18a
2a9a
ed28
02c4
f453
0bf6
0fd4
d355
1d67
2640
1178
0ee9
2503
e6f6
55cd
d807
2d11
e801
e475
ce88
ee15
0b64
daf5
e1a7
f419
fda3
18ff
fb9c
2313
1df1
1120
01c6
f98b
df73
f716
e714
e784
dfda
dfc7
e556
e741
fc45
f7f9
e72e
07cd
1ce4
1508
2952
2f55
de98
d64b
0e94
fd50
1452
e3dd
e007
09e4
e75b
e4fe
095f
fc43
ff65
f22e
ff36
46ae
febf
112d
ef32
0dbb
0358
0bf0
02f6
dcf1
1b00
e79d
e3e9
da89
fff4
2001
de23
f6ae
17e2
e56d
fc72
0995
f01e
ff09
ded6
fea6
0541
f1f5
fe79
dce8
eb7c
0f8f
ffde
1aa9
f6f2
dda8
1524
0011
11f8
f8b4
e176
1c6f
23c5
0c7b
1aa2
0844
ddeb
e697
ff5e
f725
eee1
0983
eac3
eae6
dbd7
e6f2
283a
05bd
f7e7
1e07
dcc0
238c
fe22
11c3
069c
ff29
25ed
eac5
e92b
f5aa
f311
1708
f1f4
096a
fda4
19fd
207d
f301
441e
d195
dcab
25f7
35c1
f37a
f79b
0343
14b8
dc9d
0be0
ea9d
e5f4
ef61
fd0d
2a66
deb4
f9e2
2271
1dca
f16d
0eba
1cdb
d80c
fa8a
ecf3
f6b7
13fd
165e
fae8
d7c1
1fcb
dec3
26ff
29d3
f847
ecdf
de07
1ff5
2cee
01b5
f18f
0bc5
0b1c
048d
f945
1d96
10b1
1405
dc4d
0175
21a7
08f9
0d59
f902
ede4
11c8
fb1a
0bb5
226c
20e1
d9cb
ec7e
0b53
4985
e5bb
164e
0a0d
1595
f410
18e0
ef68
daee
e5fa
e96e
e6c5
fba5
e598
2bf7
d8d2
ff78
0905
eca8
0c6a
2b57
096d
ca68
db42
e8e9
da48
f61a
f40b
ea0d
2888
e753
f35b
47fa
3ac3
d6e7
16ae
16dd
139b
e63b
ebcb
16b8
dd0a
02a2
0982
22fb
11d4
0296
12d0
1932
1a6d
db6b
02bc
e8ea
e042
15a1
de2d
fd0b
29b0
06ef
2d09
0f18
0482
d8ed
e608
13a0
e194
fdd0
15fa
e4a2
f4b5
27f6
26b5
009e
12ac
f368
f8cc
0fd6
e9b5
fc7c
129d
e42d
d032
eac6
1ca8
26f2
110e
1461
fb33
d35b
f045
13bf
05d1
e6bd
0f90
e233
17cd
de36
0ec2
0849
e412
f413
f058
d91c
fbc2
d593
1841
e2ab
12cd
1113
18f0
47f8
d5a5
f10b
f92d
1e58
da20
f294
1e0a
f3d0
f7ea
f74c
23b9
fcf5
ecd7
1003
1d17
fe97
103e
0e54
e5ba
f90b
2300
dcce
d7f1
df64
20f4
21b7
09c1
180e
eab2
ea7f
fa2f
d8b5
1465
00ee
f4c7
ef57
eb33
2108
345a
0952
08e9
ca4f
d6f4
ec36
018d
16a1
e053
2148
fa9b
de4a
109c
e095
fae7
f76e
0d31
e804
d763
1b87
0c61
1792
dc4c
d6af
23e2
fbc9
dee0
1b9f
05ac
0d5c
e233
f8a7
0944
2eb0
e416
ea78
fe83
009d
df70
03a4
19d8
1e9d
0b45
ebbb
141d
dffb
fd61
0119
1dde
17bd
d1fc
ea1e
234a
e257
1183
1734
f0ea
2250
1ec4
1e33
3fda
f336
ea38
defa
f9ab
1563
d79f
fb68
0469
06e2
db2e
ef19
069e
be47
da8e
e427
0b9b
fd15
f92c
160f
0f26
f097
20a3
e745
da03
00ff
1a1f
f636
045c
0a2e
dd23
f589
ec93
0d2f
db22
ecf4
e9a8
f1c2
ff0b
ef56
fe44
f43b
0895
1960
2b31
e30b
24dc
cc25
e5d2
1a97
090d
e096
e957
ed6f
0e13
1ebb
1e06
1041
f166
1fab
f72e
1b7a
faff
1502
dcbd
ebff
0b5e
0363
0ab8
dadc
f3ff
eb1c
0411
d4eb
fdab
ec50
e051
f862
0c2a
3929
0627
e75c
1868
f977
19ba
e034
1a45
eda2
edb6
feff
1723
28c9
dd48
dccd
1620
f250
f59d
0f61
18c2
10bc
085e
0144
18aa
5862
f746
0713
0d26
14ad
1484
e956
e06c
0ce6
da8f
dc54
fe9c
2817
19ea
2b76
e339
edb1
e830
cf49
dd21
e77a
0d6d
0fe8
5c99
ed7c
2045
05e8
de70
1222
1af8
1d9b
f6ee
0aa7
1c54
fe18
e749
080e
0b03
0f73
fdd9
e62a
e9f6
e2b5
f7aa
dd34
d484
0307
1aa2
175c
deac
df08
0f88
498f
2f90
1de9
c919
0209
18fd
dda4
deaa
0aac
f08d
029e
e9f9
fb00
d543
eca9
e4c6
db20
037b
e410
d796
e448
1f92
1674
da61
1186
fa4d
e958
f8f2
22d5
fc5c
090d
12b3
ff95
cb42
f752
1dac
e46d
e502
0ced
2502
e53c
021c
fd41
e7f5
d4e5
d73c
db4b
251b
1b5a
ea32
1187
0b21
f32e
2db1
ded8
1223
158f
e131
e2d9
e59d
12fa
e24f
fdf7
1ee8
223a
4f76
10a9
20bf
f3ea
dfbe
de74
f470
f144
f2db
fe13
e465
e681
defc
f548
ec37
f75c
ee87
e86e
ee42
1840
e98b
3475
dd22
f070
1178
0240
194b
1816
fb5c
e478
f7a1
0657
1857
d95a
f46b
08bc
e95f
e42c
0904
1d7f
da41
5c8b
f2d1
e949
f7b4
f835
fc33
0c4d
1f69
ff9d
4054
00bd
fcff
ef49
122f
dd0a
17cf
1420
f40b
0277
e4c8
0333
5e70
df6c
dee5
fda3
fb8c
181b
e8e6
edf3
fa6e
c58a
fa90
f65e
1b07
025a
de7a
f2f0
15c1
4f1b
146b
e35e
0911
da56
27e9
092c
28da
f033
fb4f
17cd
ea4e
d6dc
1bec
d1a1
e575
e40a
049a
e733
ff53
12ee
05bd
0c10
dcd1
0565
eaac
1532
19da
21b7
e613
ecc7
ed8e
0ed7
182e
de7a
fec4
2a74
10a9
07f7
0547
014b
0677
ef2d
f869
db4e
0b8f
fb18
1a8b
e7a3
fcf7
f343
fffd
1992
1e33
094b
f709
04c7
180e
15e7
1af6
298a
1c75
e954
f672
2cfd
fa8e
2328
fdc2
f168
0ea6
5864
eb9a
2333
d935
e184
e678
1a2f
2259
e490
25ad
208f
f5b5
ff04
fca5
dd21
6101
1b7d
dc79
fa0c
17ec
244c
df32
fa95
e227
e62c
02a4
f0c3
13be
ef2e
e949
0180
f26d
0412
2670
ec2d
0078
edda
d744
e195
1c7c
f12f
1541
13f5
e4fa
e219
f7de
e5ee
0768
f8d8
e330
0bf0
e80a
1960
23df
17e6
ff18
051e
ecf1
dbe2
0d22
f8da
d681
1b0e
e24f
fdfc
d74d
d51b
f3fb
da51
100c
f6ef
d554
d9b9
cbb2
e1f9
167c
d7b4
18c7
dea6
25af
1b64
27b3
e874
e176
dcb9
0835
db48
ea1b
27e3
1c90
0410
e76b
e136
0817
0d0d
fa0d
e850
fc4c
e195
0130
1c61
fc03
346f
0dae
e261
188c
637f
1d48
fde6
1d8c
f67f
0285
1043
ff17
0cb3
0c09
ded9
e628
fef4
d938
dc51
1917
1603
0f33
df11
fb28
de63
120f
feb5
0cc6
269a
1021
fc7d
10a0
07d9
ec50
e236
d5d7
ffe4
03a4
f869
08fc
eaa1
ea85
0688
e092
146b
052c
17dc
186f
1f7a
0a3f
df70
00ba
f4df
e757
d94f
f4ae
f295
e017
d63c
0f54
e556
0f4e
18c8
f51f
f1eb
1a5d
f792
16cb
f06b
0428
142d
dae6
ecd2
0f6d
da86
e7e7
f829
0ffe
d86c
0f59
01b7
0a5e
f99e
f883
e649
c6ec
1f51
0d8a
f755
0b22
f6da
10cf
0e58
d685
eb63
1e9c
dde7
0cb2
fbcf
003a
0469
15a9
d514
04ac
e7c2
1e5b
e357
c34c
f435
055b
ede3
f3a1
074a
204b
f821
e1b0
e13c
087b
c8d3
2597
1190
f630
fad9
09ef
ebc9
2134
2162
054d
266c
cb44
030d
0b99
efcd
0c06
e905
e61a
f1f5
edb8
237e
e834
5222
1e56
223f
003a
d647
0417
2744
122e
daf9
0cea
1616
f6da
e45e
0250
203e
52d5
e00f
f383
e7af
01c8
29bb
ecde
1b94
e652
132a
e16a
136b
e583
0c80
e267
eed6
e7c9
062a
04a6
e45b
cf42
dcbd
213c
eb1d
0b78
1545
e2d9
2225
e41c
15da
022c
f8dc
f008
e6f7
03bf
f3ac
e709
e02d
1edf
e509
2358
f4cd
de7c
15c6
2294
ec4f
dfd4
1e78
d7f7
f445
231b
1e2d
e7db
1816
17b0
eefa
d4bc
1a08
ec70
267c
073a
f7f9
de52
c0f7
fa87
1705
0e5d
feac
0b7e
fad5
d372
e5d9
11ef
e174
0431
1057
dbf2
013d
fc7c
1cba
ec7b
e6b3
094b
0dcd
0185
dcef
0773
054f
f911
f000
e839
f939
0a24
f4d2
f6d9
f928
21e9
100b
1bdd
e568
1dd3
fe50
e194
413a
150b
ebf0
24a0
f47f
17dd
de82
ddab
fef4
1811
f323
122b
d412
f00b
e538
0266
f0d2
22bc
faf2
ee4f
1a9a
da46
481b
c4f4
d722
33ba
fb12
f34e
f25c
1f15
1df9
e846
f7c1
f00d
f31d
1722
de5d
ede6
f92a
d90a
03a5
f3b2
f117
160b
1156
f9e5
1f87
003f
e2d0
131b
eb3e
09c7
e765
f9db
e0e9
1b40
468d
f2b1
f3b8
e70d
e6e8
fc9c
d9d7
e6c1
25ee
d64f
fa87
ffad
ffc6
1c4f
0a92
fe36
fdbf
f9ba
d49e
181c
14bd
e942
f4d3
fdfa
d554
045a
dfa2
019d
01e3
02d1
cda3
e0fc
de02
17f9
e2fe
13fe
1cf2
187a
fec1
e551
f147
ff5f
275d
2557
f4c0
ef8f
1a18
11e7
fb3a
f41e
07cd
01c2
f2b3
133b
f7c4
e517
2896
0ac3
388e
143d
feff
22c7
ea9c
f500
d460
da86
1796
0563
f978
22b2
0563
1f7f
07da
fe8c
006f
f1ee
e94b
159c
ef52
055c
f63c
d9c3
120b
e6de
2140
0676
da54
ef0f
06d6
0d89
0c00
0561
0fbf
0c8a
e90f
1a1e
1a60
f293
0a0d
e15e
f5bb
0fb3
24cc
1d34
e49a
eeb8
ecd6
2342
e233
0257
de05
d92c
fd22
e60e
0598
2575
0bb1
2399
d4fb
1fce
d28a
04aa
0fe4
2405
e8ac
e940
0b5f
1281
22fd
24b3
19b3
0bc5
3adb
1cc1
2c71
d8de
2599
1342
fd04
07f6
f762
e14a
10a2
201a
e457
e772
1679
1ae1
dc41
15a0
0b15
1cd9
0f1a
14ab
e91c
d901
fe13
177d
225a
e40d
f77d
2888
1c52
26b0
daa5
dc0f
060d
f2f1
19d5
269e
feed
02dc
04e8
e910
21bb
ec8f
0e64
ec27
090e
0b81
227f
f5ee
22d8
11c6
0afd
21ac
10db
e951
16b5
e790
fb2b
05d8
06a5
24a0
1857
fc10
0a87
f004
f410
1320
e160
1b63
02d0
01cd
e070
fb85
02c7
ee43
19a4
1035
0df0
ec51
12c1
faef
e29e
f460
df37
075a
1ad9
feb6
eb07
0f56
11d1
e6fe
dfd0
23ba
20e1
1da5
04cf
2b86
f14f
e997
df9d
f914
df16
f36e
28a0
e9e5
1bc2
d4e1
226a
174f
163c
fa71
0eea
3a76
0fdc
f1ac
f095
f8df
1b79
fe5d
d5fc
f27e
2787
dc46
e696
1b2b
e2d5
1ffa
e852
076c
089e
0a90
f17a
e476
f560
0acf
f964
dd47
106d
f140
e74e
ff78
0902
08d1
f414
e2bd
0630
166f
dd98
eff4
dac1
232f
0a59
00f7
00b7
0810
160f
037c
1570
e7c6
21ff
dd6d
deae
eec7
fd9f
2059
dc39
ec70
f0a9
defb
0bed
0b7e
031b
2402
d8b5
1a7d
1776
e5b3
08c0
dde9
eda6
161d
f6f3
d218
f377
2372
0b94
efc4
1efb
e3a2
0569
07c2
3d28
ddd8
f383
0670
137c
2020
0e1c
f2ed
0045
e52a
f2cf
f89b
0366
dda0
0e73
02a5
25ab
064e
d78d
193c
445f
05ce
fe91
eaed
de77
0b20
2001
029a
1c74
073f
03b9
e465
17a2
1b15
e8f5
eccd
11b5
1d6b
0d84
24fc
011b
da36
028c
1fff
ea77
079d
e287
19b9
fa9e
039e
fb4e
0b9e
2025
dfdb
0afe
04a1
0fe1
2656
0a10
11ed
0315
fa51
0338
ed56
1749
179f
1e1a
2bdc
308d
22d2
f383
1b61
df3e
3780
e22b
0cd0
f8c0
094b
0771
1e32
ef48
17ff
eaa1
f5c3
24b7
1664
db93
1a13
1c23
fe0c
ee6b
1f82
e48d
df35
f981
0b0b
de2f
2154
1836
0ce0
f823
ed82
093a
4652
096c
db1c
1155
2214
f5b0
ea0d
0530
055e
1189
f9a0
015b
176b
dd24
f198
1efd
ea41
17bd
e805
e191
e135
e1cd
0471
f725
f7a6
e00c
0863
d8e4
efa4
fd70
03a1
e7ac
c9d9
1c7b
e550
11f5
0b4f
d97d
ebd1
1784
254e
1220
ff8f
fc55
11cf
e9fc
dec2
effe
1a9c
e2e0
daf3
0592
fa0f
f04c
1e65
01f0
ddf6
2d0b
0e5d
f88c
2781
d039
d983
0ae2
fe4b
e314
1e28
f1c6
269c
246f
e516
e8c1
001c
30fe
103a
1b81
e593
1129
2367
2207
25b0
148d
06aa
1346
f1cb
fd23
d776
fc57
0703
de09
1fc2
ec1c
12f7
d9e6
de08
fd48
1e9d
0445
1b7b
03cd
197a
fa03
eca3
3d6f
fdfb
e848
1afa
05e1
27c4
fa73
13d2
dc87
2092
ec3c
e0d4
03f2
11d8
ee7a
0f2f
2310
1ecf
21b5
f5e0
ec46
1647
0d70
e2d7
061a
1596
27b8
1d9b
184e
144e
e446
18ca
1853
2468
1ee6
136d
e4eb
0def
eee3
19b2
e389
ea3b
cbbb
1626
1ba1
0e27
03af
1002
f206
1a15
033e
1ad3
f2a7
f315
ec86
07ca
13c4
228f
09ec
1d24
0f6a
dce2
1600
1f16
dc49
2352
ec56
0b87
f2f4
e39d
e5e7
01ab
0e80
122d
d94f
343f
0a5b
fc31
e911
f0e5
2824
1415
0497
da69
0eff
e01f
199d
1796
252f
0806
1dd2
ef56
fc1a
148d
1751
0232
276b
e8c8
4d56
10c9
eafc
0bfd
defb
2005
ecc8
eb7f
17fc
d986
de60
ed53
0873
1c7a
04e6
0322
df50
eae7
ed45
1d6a
f543
1c37
fd6e
dfd8
c14d
0537
04cb
2544
13ac
d7be
fd33
d976
05bd
db8f
efdd
e397
0770
e365
e6a9
ecfd
dd45
1bea
dd71
2432
13b6
0189
fbf7
0228
da08
f9d5
21e5
233b
f56c
0391
015d
eb83
1302
d8a7
d6e1
1ca3
efa9
e7bc
056c
022f
2684
1c7e
e5f4
3d48
ddfb
dac8
eacb
082c
0dac
1055
0ced
ee2e
eb09
0500
fb7f
d825
f1c3
f0d8
11e3
dc71
f3c1
f604
ee77
1845
3721
1ac3
e572
eb5a
1e73
1b62
11a8
21c2
0d19
e48c
debb
1d69
21f1
f0c0
24a5
f52e
1182
015b
15d4
1831
220b
e100
2146
eb3a
22fe
24d9
f3a6
06a0
13db
0dd3
df7b
dd0a
02f0
0145
2466
fa13
fd85
00cb
dc94
09ab
158d
0d4c
0b47
ede4
eae7
0107
2e99
ea9d
ed60
0915
0e70
fa0f
e32b
ffbf
fd52
102a
f0fd
0403
f47f
10a4
ccaa
de48
1bf3
0186
fa19
fb39
14f4
21c9
14e2
0780
cfda
f514
f54c
0f7f
f9eb
165a
1521
010c
0195
2d40
fe35
1140
2455
1b0d
1b2d
efbb
eb3b
078f
2d99
fc6e
1700
177e
17b5
f644
168f
fee5
1eb2
2481
ee36
f0c9
1381
3af9
fad0
f1c2
f0e2
133c
13e8
df66
0a16
dc79
e517
f375
2e33
fd41
f12e
da71
1e3a
de59
de7a
1977
1072
f7f3
da02
d816
2067
ff4b
f3f8
d360
de5f
ec0d
176d
0b3c
031c
0e71
e8ac
1cc8
15c9
e806
218f
1fd3
dea7
1cb9
f035
e51d
0ca6
ff94
e8e6
0ca9
e0c1
cfe2
e861
f68d
e525
0453
e297
e5ea
0fed
20f4
27fa
184d
f9f9
ddc7
e1d6
ee45
e840
1758
24d2
107b
ebe3
e2b9
2ec7
02ff
dd33
07d7
e36e
f96e
08ad
1397
1042
dcaa
0493
e872
2f18
2185
ea71
ee88
1dce
1e15
ea14
10e7
0d8f
050b
dc6a
0e06
02ca
056c
f5c2
0000
028b
dfec
e877
edde
0b70
1ba6
f4b6
14f8
f3b5
da17
1475
0156
dedb
e63c
2b8b
d8b0
dd7a
d9fa
013b
17c8
dc02
1ba1
05f5
060e
06ad
e475
1c20
1624
e4c7
d7c3
0e38
0fec
efbc
1818
e69f
1bf0
2051
edc9
e2cb
0652
f311
0b76
f11c
1da8
ee92
155e
118a
ee16
12b5
1adf
0786
e3b0
21f1
f084
e7c1
2525
0771
0160
ef66
06af
eee4
0c62
f646
dc92
da22
e720
e370
e8b5
dc6e
0b5a
e570
f088
0acc
d3c4
1bfc
1291
d830
267a
fee5
e194
10fd
f675
170c
f91b
11cc
fbc8
f0e3
06f2
ea70
f987
f8f0
1f54
fcd7
16d2
0fc5
0288
0ed3
1ad6
0a75
15e2
1363
0b8e
fd9e
12af
e3ba
0793
e032
db91
fae2
18d3
08cf
f1ab
f07b
fd06
f0ca
c505
eccd
0cb3
1739
f5f4
f491
e20b
dd0d
f44b
d922
1261
0aa3
f4bb
051e
d93f
1f11
1c40
16fd
0049
e6b4
e804
ecf2
09d2
ec83
1635
e985
20ca
2043
24c8
e2ef
fdcf
eae7
1612
0e85
efe2
f6a5
0695
020d
e2f4
eedd
0416
dd95
e7cd
e1e7
eeff
005c
ea94
37db
f5aa
e86a
07a1
22c8
ff51
e3d6
1955
fe9c
e0eb
fa85
d0cd
feb6
d881
ea7a
f80f
162d
eb17
faf4
2157
dc72
f6e1
e123
d6c8
fc42
ef2f
0d3b
f623
e9d2
eb09
1fad
2f9a
090c
1954
1461
f57b
e9c5
f026
ea61
eaa7
f108
136d
faaf
f256
1ad1
1cf5
f9ce
ed72
ee28
ffcb
e656
0cd2
1714
0556
1aea
09fb
0818
2706
f19a
3a79
f405
2852
de57
0a4f
e400
2356
35e0
fe90
2897
f940
048d
29bf
241b
de87
f62e
de23
dfcd
0e41
f764
fcf1
f21d
182e
e6e5
0079
e8d4
d866
246d
139b
dad6
f7a9
096f
f319
0285
2197
220a
e314
1bc3
ef18
1740
e647
f7fa
16d9
168c
073b
11be
0d4f
de2d
f5b6
d7ce
ff72
ed37
1b16
2664
f028
e77f
fb3d
e208
cd13
0ab4
111e
08b6
e733
031e
efa1
daa1
f130
0d94
ff28
d801
0519
f3a4
192b
002f
f367
e40d
118a
059e
ecd9
016b
f1a0
f449
f05e
e05d
db0a
f0d1
e57d
faae
eb56
1f6d
eb46
04a2
dd83
f225
e5d6
249a
ed5a
1f28
3aa5
246f
f5d1
fad3
105c
ec98
f644
0968
d970
f9a3
e2b1
1847
e0d1
0e22
161e
066c
fe7a
e80b
21c7
e11b
d56f
01a6
04c0
ef82
e206
f780
f0de
d8c9
18e1
effd
e221
105e
dde5
f388
198a
04c4
cac1
0824
dde4
19cb
f498
07d9
1524
49f1
3a6b
fd48
0907
1e42
1e81
18e3
fcc5
180f
1027
067f
2037
1856
0972
e81a
11b3
fd22
2728
0542
1496
0082
d7e0
1080
1f21
f64a
0581
1c8f
2365
dc56
1d20
23c6
ef23
d4d7
14b6
2cea
0fb5
0854
1170
1163
010b
0d62
240b
169c
f369
f4aa
24ba
0225
1ce5
f77f
fa63
e3d8
06a5
eacd
03ad
21c1
0799
f5af
2b77
dc31
2e39
142f
e42b
e70f
4b9a
24d7
1483
ea0d
2cf3
1232
21e1
d7ec
fa98
e052
e86f
e62e
21b2
1e6e
082b
17a7
05d3
24f3
170c
ec68
0249
fe9a
f227
e005
0458
e17c
17de
d2e4
fc51
d11c
fe9a
f4d6
057a
f1e4
e87f
05c0
10c6
fcb9
0a80
10eb
e979
f3de
0435
1fa9
f30d
0018
dac7
fdef
dd3f
f849
ef55
d89e
e5b2
0b37
ea2a
e727
f301
ef75
0915
0d9e
0afb
e88d
03fa
07be
0ede
1c74
fe31
dac1
ec1f
f811
eb56
ea35
fba2
1e00
e8b0
dfee
d12c
f0c9
179f
d164
1636
0540
e55e
e4af
03c8
db79
22b6
fc4e
f9d6
df64
fba7
fb70
f646
e8d4
e2fe
080e
137e
1e14
f484
e4bc
00aa
17de
06a9
10ab
29c4
e84a
e8fb
1d7a
d911
1f1d
0a75
1044
de2b
1cc9
dd51
22fb
2b7c
0e96
e6e8
ee8f
06bb
f4a8
0aa2
fa7d
e6ad
1dc6
0987
070e
f077
e094
2102
1934
de07
25b1
dfd7
0b0c
d704
224e
e7df
1c16
202b
01ee
fe3a
dbed
cde4
f4a1
f022
22db
e06b
0dc1
1aa1
1da3
e228
2441
fde5
217c
dd70
e735
de5f
f5d9
030c
12ba
ea73
f238
0f63
f30d
e499
f54e
1731
177c
185d
edd6
cbdf
3b84
f04b
038d
210b
f6fc
dd27
18a5
d0f1
e9ae
048b
e89f
099c
f026
0d09
0b9d
02db
f7d4
dcbe
e51d
f1e8
d01d
ee78
f13f
fbe6
0c08
01e5
ed96
ff86
f1bc
d505
1371
142f
f7b0
feec
01f9
1f37
ec4d
1567
e358
2ab1
efad
0e59
bd86
2840
e823
0a7f
de0e
ef73
03a3
071d
02ef
1f27
1b18
e465
df5a
0b94
255e
1a68
e1a6
e5b0
2267
158f
0a34
0fad
1451
1cd6
0410
df62
f042
0136
fc73
0d16
f957
eee0
1845
e358
2143
f097
edd1
084c
119b
2613
11e9
12b4
3138
271e
240f
fb25
ecf2
0545
0845
0f55
044b
fb89
1628
0d4d
1439
13b6
082d
10fa
199d
0a9e
e030
ddde
000f
17eb
109e
dcac
d741
0adf
15c6
0232
1920
2470
e637
190b
e333
e575
07a0
dad1
dfe4
0a54
0714
02fe
1f54
ecf4
e965
15c3
ff40
0913
f379
f730
eefa
faeb
d34b
f2e4
fc67
0bc9
e027
2196
f182
d886
0591
0fb1
e82b
1e16
01c1
1980
e346
f1fd
2205
28bf
1796
fb31
f48d
ed75
f24a
e623
1281
139f
1fae
23b9
ecc3
fd73
305a
eb25
fc6c
265d
0328
e96d
207f
0ac2
0ce6
15ef
f10a
1dc1
e584
fe68
f0e8
04b7
0756
221d
ed4b
01df
d967
0f29
4163
fab3
0594
139e
f101
0149
f2af
1ef1
fa19
028d
e756
1855
2a15
d87f
fb65
fab2
121f
0944
d98d
f5f9
df81
d836
e300
f91b
fb26
0778
1496
1e30
f431
fb78
0e68
02a0
fc30
016a
24af
e5d0
0ef4
2537
1a00
1e2f
e4c7
1eb6
be49
e987
2577
e4a9
0590
1bd3
fca1
1313
e6fc
0e21
e0d9
e155
11f7
ee19
ce25
1448
f784
fb80
0a02
26ff
10ea
1ded
ff7d
0910
fc6f
15ba
f3a4
e0f8
1fc2
1dfe
e677
256b
f054
ee92
fd35
20e7
f0de
fd1f
0c46
fecf
1f06
ff3e
f2a7
fd72
2fae
150d
d081
00ef
0ff1
0069
d79a
d9b8
10d3
1a95
1042
19fa
db18
1ea2
ecd8
d606
3a2d
042e
f0dd
eecf
f62a
f27c
439a
0775
037b
0172
3b74
18ce
ec62
128c
0a8d
f38c
12cb
0995
e31a
edb6
e748
1e7c
0b61
1095
08b3
f452
0e32
f974
f2a8
10fd
1607
f81c
dc16
e37c
f977
eb77
194a
f177
e612
1b2e
dcd0
f1cb
e9cd
1f9a
e5e5
df9c
ebe2
e484
22dd
13b5
eefb
f3f3
ce98
fb5c
fca0
19df
06d6
17c1
fefb
1dd3
f778
e649
085b
18c8
fc31
121c
1958
25cf
e051
edcd
13e6
0161
f2bf
16d7
1466
ddd7
2234
123f
0fc5
ed44
17a8
f8dc
1905
0ebd
d9da
e7c8
e8da
3f8b
dccd
f460
e818
e58f
2ede
f030
0727
0bbd
e359
dd15
0349
de1a
f455
f549
db79
fab8
0951
d837
1bf9
e358
e23b
2a2f
0c2d
0560
eb6b
0ea4
10a4
fd16
e575
0cb3
e7b7
fef3
241d
f284
cb4a
f5f8
06dc
f3b0
e054
11b3
04ca
ebb6
0d95
df39
1702
fe69
0c0f
04bf
f568
3961
fe2a
1dcd
0237
f823
02fc
20b5
ff18
e7fe
2188
01cf
e364
22cf
1091
1d65
f27b
e9c4
e2c2
dac4
dc88
f942
19ec
13e4
249c
e20f
e97c
e6b9
1aa9
f7c8
dc18
f394
f208
2065
e07f
f000
eee8
2122
1206
10f7
f40c
0acd
ddb7
edf9
e8fb
e1ea
21ae
e772
1d92
0c14
f63d
fcf6
077c
0c29
fb42
e1da
ff15
ea84
d91d
024c
02e4
0b51
0218
e39e
1ec7
e786
e7e4
eb22
f575
0aad
0817
f3d7
3202
ec5c
df08
18bb
e014
1c4c
106f
dc0a
f17f
11ad
3bb6
1a97
10d5
1a10
e2bf
f713
fdfd
0d7d
0a5c
fd46
f722
06da
e5e4
f298
e873
008e
e6ae
dd6f
0aff
ce82
23b4
1598
220a
0ea2
f137
077e
f57c
da36
ecab
051c
ea3c
119f
df2d
d245
0ca8
3de3
e9a5
df96
2256
e2cf
dc2b
24d5
f6bb
12a8
f97d
0dbe
ef09
f660
15ee
e9e7
eba9
eff5
e055
12db
2016
101c
e03e
2439
ef73
26e4
3cd8
fda9
0cb3
f97d
e188
16d9
0923
0d12
fe88
e0fb
f900
e332
20d8
f6a5
1b20
fe05
0879
23b5
1516
134f
1f0e
229d
d16b
f5a8
093b
1c64
fdbd
ee63
1871
139d
2467
1a32
3d53
0dc1
ed82
f8a0
0ad5
1683
fc33
e49e
e4bb
f4ed
2109
20b4
0699
24ab
ffab
268a
f62f
0615
4c6d
efff
febe
ca9d
fb79
d7e2
0293
215f
2418
095e
057d
e9af
e42c
e604
1de4
3325
0118
e623
0904
1efe
f5e6
df00
f121
f7a7
f9aa
d9d2
109c
064a
0f6a
f2e0
e8d4
d694
fc4f
edd4
fb6c
1034
daca
02a4
1104
133c
e281
ffea
d3b7
1291
223f
050f
1ef5
ed85
13b5
0a17
1970
0973
de19
0daa
f2b2
e207
e19f
147c
06be
17a3
d6fe
eb15
e0c0
02c9
eae1
080e
fee6
ef5e
095a
e96e
03ae
dcdc
ffbf
f45d
024f
db9d
f3d8
f27a
1c57
111f
1451
f60c
2065
e3b0
d682
f69e
11ca
f3f9
fbe2
16cc
ef8b
19cf
df20
e047
1e2d
fb94
1152
e7a6
5bc3
f776
f05f
ef11
5559
d733
d800
fd72
0d04
ef1b
ffb9
29ed
1abe
f49f
02b6
01f1
1800
d3a1
235e
10d4
fed1
0495
16f4
035b
1a3b
ef85
111a
e8a4
12cb
dadc
decc
d118
f395
15ac
f3fe
079c
07b6
e384
d861
191f
f389
1da8
dc1b
ec05
fe2d
fd5e
fe90
f9fa
0219
f7ab
f9b6
3210
132a
e9a8
ffff
06b6
fd3e
ed21
db01
1039
10b5
de68
fb02
f3ff
2d65
e56d
190a
f07e
e8af
1387
0c7a
21fe
126a
05e1
f42b
dbfa
ec49
fc02
1b09
fea4
0af0
d892
1b76
f2e9
215c
d14b
e83c
f661
60ee
f252
ef9e
2ef2
0dae
275e
1630
179b
fe0f
ee28
12d8
eccd
efe8
debe
fca1
f212
ee36
f364
e419
e887
cb90
1242
eef8
1810
dbc3
1579
fac1
f625
e4a7
db69
d2dc
df41
fbf9
0e6c
19ad
f7a9
167b
ea3b
165e
f1bd
d2a5
f901
de70
1dad
f681
d51d
241b
0cee
ff4a
e4d6
18b2
ff4c
2c46
e54a
02fa
1c3b
0561
2327
56e8
fb83
e2e3
1a22
e972
292f
d7ed
f0c4
ca9a
07ea
0dc4
282d
1a87
e2b8
1578
e4fd
e2ff
05e2
2205
114b
c971
036f
40f4
0a80
0196
e502
d482
23a2
14ef
e57f
dcb8
e7a6
e14b
13a2
dfd6
17fa
d1a7
e3e3
f3db
1f91
e32d
dee6
fce0
18e4
163b
f44e
dba6
f211
f671
df53
26f9
0d74
e2a5
e923
162a
0754
f1f5
d898
0913
1fae
041e
e5ce
f5ad
16fb
19ed
1f38
f5e2
d8c6
47ec
daf1
d261
decb
eed7
d7b1
e847
17f2
1081
1958
e605
24e0
ed03
dd81
ec9e
d3b2
e2e1
eff0
4a8a
e9ad
0c45
12c5
e461
f2b4
f5c2
1060
05fd
1b3e
1fe5
eb73
e2d7
01ea
da8d
d838
0146
d835
e667
e030
f9b1
10c4
19d9
0f92
0eb5
1cae
ff75
e80e
f291
f0ed
e242
feb2
0c6f
fe1d
0f41
13c5
d578
0077
fc0b
286c
0225
0ace
d626
24ca
1150
18fe
082e
e6ea
1578
43e6
0fff
fbef
2232
da3f
da1c
e82d
1c20
f92d
e059
289d
ef12
fc12
ffa5
137b
2157
f482
eeef
1504
e210
0fe2
1121
f722
e6d0
0a64
0dcb
1fd2
dad3
e39d
1405
057a
e06d
0500
1a4a
f977
e159
33ce
d9cc
10f9
da9d
1320
0d80
1c08
07a2
1b2b
07f5
f71d
df25
ecc1
0a92
50b7
ece0
03a5
fc7b
1a83
e2b2
1f82
eee7
eb70
fa06
0ccc
01ed
327b
f64d
0cd4
ff57
fff7
d8b5
172d
03da
041f
2906
da24
152f
fcc6
24c7
3a96
18fc
f38b
d94e
eac2
e62c
e3d3
f965
05dc
d0c1
11cf
f1c6
124f
1a7e
fe1f
e6da
0058
001f
efdd
fff9
f254
f400
10df
0188
01f4
0053
24e9
dfa3
f22d
0595
0635
fd32
e07d
14d2
0ada
194e
0c06
ce2f
134c
2154
f9f1
f2df
e1d1
0540
2214
e98c
fbe1
f917
e175
0e02
f683
fd4d
e75d
fd66
049e
0710
0d92
f8b7
09b1
0138
e9d5
f080
0efb
1bc0
264d
e9bc
ed4c
d8bc
e3b9
33be
0418
22c3
ecac
c842
177b
f392
0008
def9
f447
1ac4
0903
d97c
e9e7
ff67
07e7
132b
119a
3560
e601
1060
fa26
28a2
ea9d
d6c0
fd54
21b5
dd4f
11ce
e651
205f
2f13
e985
0f03
f35d
cf99
d9a1
017e
f973
04c4
10d3
d8b6
f4fe
0316
ce6c
232a
2b03
0d3d
ee99
16a4
0824
1718
2279
4b85
d809
fe7b
0549
145e
e8ea
12eb
e26b
d309
edd8
f59c
ea1d
2623
0dad
1e34
0867
f905
e228
d8ad
e685
e5fe
e77e
fcb3
f9d5
d112
e654
1607
15f5
f498
daf7
ee90
df5d
d9e0
165b
0306
fca4
0e4e
2190
0716
f6e8
df87
ebfb
1d50
de04
0268
deff
0b14
da9a
0162
1060
1deb
157d
e3c5
3f99
eb30
e758
20bc
dc23
e801
daf6
164e
eb3f
0867
e367
f21c
e367
0450
d280
1b7a
0e1c
0612
1f7c
e9a2
2db8
f848
0089
03c0
2374
eb46
1198
2992
159d
f47c
23ef
e92c
04ec
f719
df79
d52f
0614
1fff
dbd7
15c7
e482
1838
042f
d808
e0b6
f2d2
ed24
d838
0b03
2806
d7a9
f51a
d182
0238
0657
0dc2
e24f
1630
00cb
1c4f
cf71
1ddf
128f
21b5
fa34
dfa0
ff20
fac6
188a
e2f7
fba2
eda7
13b4
fe69
d2a5
17e6
c82d
e6f6
e0ac
f559
10f5
f3e0
252a
e987
34f1
caf9
0bde
de67
e72a
0cf4
0fdc
f29b
e7cc
d4f5
effa
1984
181a
009f
5b4a
dd27
14f9
fde1
25ad
f287
3101
fd2d
ff3d
c3bc
f36a
160a
d8fe
2fe9
0cb9
1856
03a2
0009
237a
1899
2378
da7a
ff95
f4f7
186f
1be4
f898
0353
0c59
1662
da6f
dad5
0d21
e9aa
0c83
ddc1
1afc
f499
e577
e782
d75d
ffbe
d1da
1aa1
ecb6
2035
0b92
1c9c
203a
f7c1
0044
d6e9
d8c7
ebd1
de2c
03a8
499c
0873
0cc7
41cc
d0ad
f7d9
ebc5
28af
1fc7
f87d
e895
fe81
046f
176a
01d4
0d2a
e2fe
0538
e663
f3df
eaa3
fe59
ed7b
0d62
29e4
fac8
2292
e69b
00d4
ee7c
e1e7
dce8
f9be
e7dc
fcc6
cab7
09e8
010a
19cd
de33
d794
1677
e150
ebce
e7c1
0665
2542
da55
ff00
e618
ff13
e02a
d50b
10cf
1ea7
29d0
f983
f4ab
0d7f
13bd
1c65
f54f
e19d
eb0a
bd8f
ebc8
171a
1093
16a2
eb69
eae8
e20e
215a
eb7d
03a8
f50b
09b2
1a2d
e22a
ed8f
2e93
d9f1
f906
f810
00ad
f048
e0b3
0090
198d
11a4
1ce9
1a3b
ff8f
f0a3
e26a
06d3
eeb0
1a56
da0d
f882
6369
1168
1700
1a01
d009
d728
e967
17d7
0ab6
1177
ee80
f93f
11cb
2562
265d
ef2f
fb89
11a0
f1e9
e2f1
c7cc
01a7
1b23
27ae
e54f
e88f
ff36
1274
ed10
ffe0
086d
d98e
1b9a
e6f7
d779
fcf9
de81
2a33
e593
00e2
f2f4
e8ee
ff8e
1d7f
0e9b
0c7c
e498
1fc3
20f4
d270
10e2
e8cd
0e93
dfdd
0a67
de01
0327
f2d0
febc
2031
e078
001c
05ea
f967
0600
d12f
d997
eb2a
0567
22e3
e588
e5af
f45a
15c4
1e89
de85
f5b5
01b4
151d
e074
2155
15e0
0515
1c4e
21f9
1542
ea0c
f913
f5a0
ec2a
d229
124c
fbf8
1eff
325c
dd4c
e8c1
ee9e
da1b
02cc
ef5b
eb3b
ff63
3e86
f341
0ef4
1525
227c
ec57
05a3
faa6
0d97
1ca5
1e91
032f
2041
f8a6
e6ef
e250
f5c4
ea86
2261
04d5
54b5
c0e5
e115
fc06
f7e7
e3e6
db3b
1cec
fd04
e3d3
0e55
2959
ef06
d48b
f1e9
182b
f387
ebd1
b8e8
d9a2
fa65
4a5d
e87e
df50
cc11
d4d1
2c37
cc2b
d5fe
1351
4791
182e
3252
15b0
bd99
bdac
e4ad
e060
b9e6
4578
1c6d
fe21
33a9
b50e
f20b
d384
0882
ceed
a681
cd48
2b66
2617
b4c1
bab8
0123
e047
3a6a
2267
ffea
cdfa
d007
c9a2
b182
d4d1
08bc
f7cc
c8ee
0fb5
3fd1
7859
1af8
2a3d
2cdf
18fe
fa79
b5b0
c90c
0a07
dd7d
cc1c
c76c
c3d4
f100
c482
482b
14de
01c9
e7ff
0198
b49a
c432
19e7
f9cd
38a6
c076
f289
edd7
dc18
e90c
3f79
396d
05a1
df03
2bdf
e18a
fa28
4f8b
d03e
3b1a
d0f2
2a76
34b3
4643
2c55
30f5
ba10
cb47
e600
ee8d
c1a5
d45c
1330
bcc2
dd40
0ca0
0262
2545
d55c
cbb8
cdc7
bfa2
0432
cb83
0b08
eb60
e611
c95e
e428
e87d
fc87
fda3
0d69
fdaa
0462
fdaf
d399
ee24
087e
daf0
1d17
1238
b4e7
d7c6
e964
ebb9
c389
e547
f77b
df45
d0a8
2d95
f510
c7f9
ebed
b99e
2bef
5019
28f5
bc16
c9a6
c960
19ac
2c54
c6a0
31e0
f485
e3da
c1e3
f6a9
f9b5
1776
e59d
6ce6
bc03
c879
e9fc
c9ae
d472
ad67
10de
c435
2f63
3f41
f007
bb65
11e7
e7d3
f8de
c4fb
c8a8
cd31
4c72
2ad9
9faa
0436
298b
bff7
d519
d325
f8f5
11fc
3533
cb22
c989
1552
27b0
c7ab
b119
2c5d
240c
4441
4855
e517
3921
db82
00b1
c7ca
598f
d92d
f0a1
d696
41fe
d80e
2303
45f7
cfdd
e8ae
19cc
4288
3cfe
4d72
1199
407a
fa03
fa7c
1962
d16e
fc63
aa72
16a7
2137
d699
0fcd
48b5
10ea
b0df
1d4d
478f
0e7a
eca6
2262
47d2
c504
c9eb
cc09
feb6
0ba5
2345
47bc
4f5e
3cb2
0ddf
088e
d488
1939
4753
c6bd
3bb0
2006
000f
2b52
7e2f
d59e
ed00
b80e
cde2
159f
3dc4
1a4b
1958
2c62
df31
e032
bf49
ef46
d627
f783
490e
14e8
2289
09ab
bcd6
198e
f8d1
150f
c9bf
0100
09f5
ea53
e378
ca45
fe7f
4b75
3929
ce6c
b3c0
b04c
0b9e
3b23
beba
27e3
f441
bdfa
2764
3ba1
eda5
32c6
d71a
1c83
3736
13cb
aad7
2768
3f8f
717d
2d84
3563
e23c
cd1e
eaae
2dae
3a3b
d2d2
2ab9
d39e
0284
293d
c86a
27de
3113
d344
c424
c458
c253
1e0e
ded0
ea21
3e39
27e4
4581
dbfe
e462
1e91
461c
5252
48dd
e016
3863
ebfc
4a13
00d0
4aa9
1234
411e
53f5
02a0
c4dc
1086
3960
c578
45e8
420b
e798
2987
3c9b
ffde
0685
c0b5
02a3
0256
4dd2
0be8
f757
bdef
fd25
f3bb
f64f
1633
33fd
2c81
1872
46e5
3f1e
27b0
269c
2706
4a21
b81e
05ab
f652
efa6
db1b
56d2
1855
c3b7
e03f
ef3b
220a
0daf
b2a4
bbab
3420
1452
0772
63e9
1c3e
d904
f59f
3bb3
f2d1
2082
185c
230d
7725
1c9c
276f
3cbb
b7fb
02a6
0907
d118
1488
42c2
cadc
4638
e3d6
a124
2056
4bb1
07c5
b390
2bde
1886
35b7
0983
c32e
00f6
da81
f7df
4be5
c3d3
3733
d7c9
0820
0f60
e157
cb71
6085
e772
3e13
e421
e15b
2267
3ba1
0145
b199
b8e3
c8d3
c9c7
40ea
2cb4
d001
2cd4
d4d1
379f
cc92
181d
cba4
0a86
c835
c6e2
47e9
e6dc
e4a1
18fe
1f70
d67a
2299
4109
291d
02d9
1341
e862
e8e6
f5a4
0d86
e413
e57a
e6b3
b492
1e45
0ab5
b66c
3663
cb5b
f8d3
13d1
f292
3f9c
f55c
cd6f
2dd2
f06c
fa15
dc50
b57f
0a78
ed12
30ac
e134
22df
b41e
fbc3
2e0a
e79e
0f27
1036
0edb
2c9f
0ebe
dc89
a356
3404
4cd6
1bbd
ab24
dd89
c86f
d91a
ca9a
e271
d88a
c7bd
4f6b
df9f
f253
1caa
2851
c459
1c36
28e6
ed35
26ec
4469
0113
6186
e551
d09d
e545
b5d3
eb43
b67a
db9f
bdc0
f976
b52f
ba23
c270
2f23
d017
0608
18ac
4fe7
10b4
e9ad
b93e
3aed
115d
0cfa
c0bb
0612
e2ce
e4b4
3dfe
e613
d059
d46b
0d82
ef89
d980
b524
0de0
3b5d
d8c3
dcaa
3893
f93d
190b
350b
dcf0
2ff1
d30a
390a
19c2
037e
dc18
0949
eb9c
1395
2edb
3b16
3571
cb40
eb24
248f
3f3f
1cae
4ae8
e425
f1a1
d0ca
c5ea
3da1
2618
b89b
c97c
2d6b
edd9
2254
daf7
cf6d
f1e5
fdd3
1c44
49f1
e404
ce04
dbca
2009
fd1e
c288
0144
5728
6440
34aa
fb31
0d55
44a7
fbe1
fd3d
481c
3f5a
2439
1464
f538
e002
fa91
2e2b
06db
cd47
4322
d27a
cf10
4a14
142f
248c
db07
3619
e690
f71e
265c
b183
dbed
3887
e7c1
3a44
ed48
1fbf
2496
ec81
011a
0fb9
de87
b516
4e6b
f83f
318e
abfe
bf02
747e
2bcf
226b
2721
4503
35b1
eca6
15b3
1448
eb81
4547
cfda
0cb8
3c40
1bc9
fd83
37b3
3f9c
481f
0364
96d7
fe93
518c
1018
feee
1a3e
ff68
e433
b284
c656
bc99
eabf
0e42
71ff
3aeb
3e78
01a2
f425
1f2e
41e7
1726
3b93
2f8b
c385
dcc4
d448
bff4
409c
c74b
0fdb
33de
1348
e3e7
1d5e
4e76
6e2c
148a
3ab6
05bc
36bf
40fe
40e1
18b4
c0ff
b9b0
c9fe
6c24
46c1
003d
3f7e
11f2
2f72
1846
11a7
3fea
db02
e072
ba4c
2147
d726
bdc8
d4b9
06c0
2a50
346d
4682
0b0e
137f
b554
f6d1
c2c3
c4ef
43b5
0d08
0190
08fb
0496
1a2c
ed07
0945
e5f6
cf1b
b80b
dba3
2178
b90e
33d3
04dd
c27f
2769
c1fb
ed37
2795
0903
4d73
e098
d1e7
2eb7
18b7
1d6c
197d
24b8
464f
3997
247f
1c9b
3e00
b6d3
e6d1
3d0f
45ff
b38a
3570
1d84
ab5f
1247
4e88
78f6
e531
10a3
d0f8
b658
e327
2956
f918
1627
c0e6
127c
bdc0
b7bb
be22
fb87
e563
dc53
33b1
356c
c8fe
fa66
0e88
201a
3a5e
2bdd
4327
c2e9
d953
fa8a
5d69
2e69
e860
e959
e1d0
0554
f682
ea92
17e0
2253
3163
c0d1
2b84
2ce0
f2ba
bf05
42c0
af04
1a94
df01
d601
c87f
2b0f
0df8
495c
c99f
0296
2426
024e
cb20
41fd
1c91
39f6
0acc
f07f
ddcf
c440
0b2f
da91
ba5e
cf20
3aa6
0397
1bc5
054e
4acd
bfec
33c3
da82
0abd
c71c
140f
461c
eaa9
cec9
faee
505f
2bdc
09f2
e921
328c
d08d
1e20
3794
453f
c387
0738
e7af
bdac
e5ae
ba70
ce8b
4c6b
1b82
be73
fa40
f370
0075
fde3
daf5
323c
42d7
477a
b682
faea
624c
4c2b
d551
b2d9
e66f
d6ec
dad5
ba2a
3800
3155
006a
c4be
1784
c369
464c
44aa
00a3
d92e
054c
daa9
1ee9
b657
e15e
412e
b839
c0e0
d481
b440
cb2f
f1d1
ccb2
4b3f
dfa3
b350
260a
f550
120e
2e95
dea0
e4b6
c5ac
9906
3c5e
c4b1
3204
b605
d183
2391
03db
0929
41a7
14bd
42a9
b791
c706
12b1
09bd
4afd
46ca
27b9
d231
1b2e
2a9c
61ed
2e2a
f38d
f850
bfa0
23a9
2209
b809
3e62
b3e3
d812
b3bd
565a
1411
3942
216f
fb82
dedd
b15a
c21e
fee0
